<pad>	0
<unk>	0
<s>	0
</s>	0
▁t	-0
▁a	-1
in	-2
he	-3
re	-4
on	-5
er	-6
▁the	-7
▁s	-8
▁w	-9
or	-10
ou	-11
nd	-12
at	-13
▁c	-14
it	-15
es	-16
▁f	-17
is	-18
ing	-19
en	-20
▁p	-21
▁b	-22
▁o	-23
an	-24
al	-25
ed	-26
▁to	-27
▁and	-28
▁m	-29
ar	-30
▁in	-31
▁of	-32
▁d	-33
ic	-34
le	-35
om	-36
ion	-37
as	-38
▁h	-39
il	-40
▁th	-41
▁y	-42
▁T	-43
▁l	-44
ent	-45
ro	-46
ve	-47
▁you	-48
▁e	-49
st	-50
▁re	-51
▁I	-52
▁n	-53
ct	-54
▁g	-55
et	-56
▁S	-57
▁is	-58
▁for	-59
ly	-60
▁A	-61
▁C	-62
▁on	-63
▁be	-64
id	-65
ot	-66
ow	-67
ay	-68
ol	-69
ce	-70
us	-71
ra	-72
ig	-73
ith	-74
ch	-75
im	-76
el	-77
ver	-78
ation	-79
▁with	-80
▁st	-81
ut	-82
ur	-83
▁M	-84
am	-85
ad	-86
▁W	-87
ir	-88
▁that	-89
▁P	-90
▁The	-91
▁B	-92
ill	-93
▁it	-94
▁pro	-95
▁al	-96
ers	-97
▁are	-98
ul	-99
▁an	-100
▁he	-101
un	-102
▁as	-103
ge	-104
if	-105
se	-106
ke	-107
our	-108
▁D	-109
▁H	-110
out	-111
▁wh	-112
oo	-113
▁F	-114
▁ha	-115
ter	-116
▁we	-117
▁your	-118
▁com	-119
ess	-120
▁or	-121
▁con	-122
pp	-123
est	-124
ate	-125
ment	-126
ab	-127
▁at	-128
ck	-129
▁R	-130
her	-131
▁fr	-132
▁mo	-133
▁ne	-134
▁L	-135
▁ex	-136
igh	-137
qu	-138
ure	-139
ort	-140
▁1	-141
▁se	-142
ist	-143
ive	-144
pe	-145
ity	-146
▁2	-147
▁v	-148
▁G	-149
ant	-150
▁E	-151
▁de	-152
ld	-153
▁N	-154
▁can	-155
art	-156
ust	-157
ies	-158
▁O	-159
um	-160
▁have	-161
lo	-162
▁from	-163
▁us	-164
▁will	-165
▁r	-166
em	-167
▁this	-168
ain	-169
▁sh	-170
▁ch	-171
iv	-172
and	-173
▁by	-174
nt	-175
▁(	-176
all	-177
▁was	-178
up	-179
ome	-180
th	-181
ie	-182
ight	-183
res	-184
ard	-185
ud	-186
ial	-187
▁le	-188
▁su	-189
os	-190
ide	-191
▁not	-192
▁wor	-193
op	-194
▁pl	-195
ip	-196
ect	-197
▁Th	-198
▁all	-199
rou	-200
red	-201
▁ab	-202
ine	-203
ast	-204
age	-205
oc	-206
ice	-207
ag	-208
per	-209
▁comp	-210
gh	-211
ak	-212
ear	-213
00	-214
▁has	-215
▁j	-216
▁our	-217
▁J	-218
ould	-219
ell	-220
▁ad	-221
▁k	-222
▁do	-223
able	-224
ook	-225
ake	-226
te	-227
▁In	-228
ib	-229
▁en	-230
ac	-231
ions	-232
ff	-233
ind	-234
are	-235
▁U	-236
ack	-237
ally	-238
▁whe	-239
ry	-240
▁out	-241
▁up	-242
▁so	-243
▁Y	-244
du	-245
ated	-246
od	-247
ther	-248
iz	-249
one	-250
ite	-251
very	-252
▁me	-253
ail	-254
cc	-255
ich	-256
▁more	-257
ood	-258
▁but	-259
▁their	-260
ime	-261
so	-262
ap	-263
orm	-264
ong	-265
act	-266
ost	-267
▁We	-268
▁im	-269
▁te	-270
▁work	-271
ous	-272
ore	-273
ign	-274
ance	-275
▁cont	-276
▁off	-277
erv	-278
ll	-279
▁one	-280
ase	-281
ans	-282
og	-283
▁K	-284
▁inc	-285
▁qu	-286
▁pr	-287
ach	-288
ire	-289
▁man	-290
reat	-291
▁20	-292
▁app	-293
ace	-294
ike	-295
▁they	-296
ia	-297
▁res	-298
▁my	-299
▁cl	-300
▁fe	-301
▁un	-302
ick	-303
▁about	-304
ep	-305
▁It	-306
ult	-307
▁V	-308
▁This	-309
▁St	-310
ree	-311
..	-312
ations	-313
▁also	-314
ass	-315
▁per	-316
ark	-317
▁sp	-318
und	-319
▁which	-320
ue	-321
form	-322
ber	-323
ile	-324
▁new	-325
▁tr	-326
▁year	-327
pt	-328
▁time	-329
▁sa	-330
ents	-331
▁get	-332
▁any	-333
▁int	-334
▁go	-335
▁who	-336
ub	-337
ame	-338
ary	-339
ount	-340
ays	-341
▁3	-342
▁Ch	-343
ction	-344
ical	-345
▁other	-346
▁part	-347
▁201	-348
▁ev	-349
ence	-350
own	-351
▁dis	-352
▁need	-353
ors	-354
ition	-355
▁tra	-356
ings	-357
▁like	-358
ord	-359
ond	-360
▁ro	-361
▁some	-362
▁"	-363
av	-364
▁over	-365
▁spe	-366
▁ar	-367
ild	-368
ress	-369
▁rec	-370
▁kn	-371
ove	-372
▁sc	-373
pl	-374
▁them	-375
▁“	-376
▁des	-377
ere	-378
▁been	-379
ens	-380
port	-381
▁his	-382
▁when	-383
lp	-384
▁prov	-385
int	-386
▁pre	-387
▁serv	-388
▁acc	-389
low	-390
ish	-391
wn	-392
ru	-393
ink	-394
▁help	-395
▁col	-396
ater	-397
ound	-398
▁if	-399
▁pe	-400
▁-	-401
rough	-402
▁comm	-403
▁You	-404
lud	-405
▁ag	-406
▁am	-407
▁what	-408
▁there	-409
vers	-410
▁its	-411
▁than	-412
▁just	-413
ough	-414
cial	-415
▁make	-416
ning	-417
ices	-418
▁how	-419
▁add	-420
▁produ	-421
ool	-422
ram	-423
ne	-424
irst	-425
▁into	-426
ang	-427
ory	-428
▁look	-429
▁includ	-430
▁would	-431
old	-432
▁bu	-433
tern	-434
ft	-435
▁If	-436
▁Wh	-437
ual	-438
▁use	-439
lic	-440
ful	-441
▁em	-442
ments	-443
ces	-444
▁through	-445
▁her	-446
▁most	-447
itt	-448
▁were	-449
ian	-450
▁4	-451
ople	-452
▁bec	-453
▁well	-454
▁ind	-455
▁exper	-456
use	-457
fter	-458
les	-459
ates	-460
▁tw	-461
hed	-462
ose	-463
day	-464
ious	-465
▁ph	-466
round	-467
▁know	-468
ons	-469
▁5	-470
ject	-471
▁supp	-472
▁every	-473
▁had	-474
▁co	-475
▁He	-476
iff	-477
▁Re	-478
lect	-479
iness	-480
▁may	-481
ities	-482
▁–	-483
▁first	-484
▁only	-485
ri	-486
▁people	-487
▁und	-488
ating	-489
ise	-490
ks	-491
▁As	-492
ade	-493
▁want	-494
iew	-495
▁no	-496
mer	-497
hen	-498
▁bus	-499
).	-500
bs	-501
ert	-502
ew	-503
ple	-504
▁bet	-505
xt	-506
ange	-507
▁back	-508
▁see	-509
oth	-510
ures	-511
ily	-512
▁cons	-513
ict	-514
ph	-515
▁best	-516
▁act	-517
oy	-518
we	-519
▁these	-520
▁design	-521
ont	-522
ific	-523
any	-524
▁reg	-525
ced	-526
▁sy	-527
als	-528
▁loc	-529
row	-530
▁great	-531
▁stud	-532
▁ra	-533
▁very	-534
ov	-535
urn	-536
▁home	-537
▁under	-538
ible	-539
▁sm	-540
cess	-541
ife	-542
▁many	-543
ience	-544
▁ke	-545
▁diff	-546
ract	-547
▁high	-548
▁years	-549
ting	-550
iss	-551
▁two	-552
▁inv	-553
velo	-554
▁find	-555
▁inform	-556
ased	-557
ng	-558
▁car	-559
get	-560
ility	-561
vel	-562
air	-563
▁good	-564
ause	-565
ational	-566
▁&	-567
▁she	-568
ied	-569
ts	-570
▁ent	-571
▁av	-572
▁inst	-573
▁fin	-574
▁rel	-575
▁dec	-576
▁business	-577
▁set	-578
▁ins	-579
▁19	-580
erson	-581
aking	-582
uring	-583
▁Un	-584
▁way	-585
▁ac	-586
fore	-587
▁Com	-588
▁start	-589
▁own	-590
velop	-591
ble	-592
▁For	-593
stem	-594
olog	-595
▁br	-596
aw	-597
▁now	-598
ustom	-599
▁rem	-600
▁product	-601
pect	-602
▁pos	-603
▁Pro	-604
der	-605
hes	-606
com	-607
ular	-608
ward	-609
▁gu	-610
oint	-611
▁where	-612
▁play	-613
▁ass	-614
ath	-615
uch	-616
▁sec	-617
▁after	-618
ality	-619
ower	-620
▁day	-621
eth	-622
▁said	-623
line	-624
its	-625
ics	-626
▁even	-627
hip	-628
▁requ	-629
▁should	-630
▁min	-631
alth	-632
ys	-633
▁eff	-634
▁6	-635
▁imp	-636
▁then	-637
ty	-638
▁fam	-639
ob	-640
▁information	-641
▁che	-642
arket	-643
▁down	-644
nds	-645
chn	-646
gan	-647
ork	-648
▁right	-649
ull	-650
▁cre	-651
ient	-652
arch	-653
▁vis	-654
▁take	-655
▁De	-656
ative	-657
lease	-658
▁provid	-659
ren	-660
▁And	-661
▁here	-662
▁fl	-663
elf	-664
▁could	-665
chool	-666
erm	-667
ash	-668
cy	-669
gram	-670
rit	-671
▁custom	-672
ident	-673
io	-674
▁Al	-675
ited	-676
▁don	-677
ix	-678
▁show	-679
▁read	-680
▁develop	-681
▁$	-682
▁att	-683
▁long	-684
▁Sh	-685
▁differe	-686
ax	-687
ale	-688
▁used	-689
▁wee	-690
▁mon	-691
amp	-692
ank	-693
▁bl	-694
▁such	-695
▁An	-696
me	-697
▁much	-698
▁person	-699
▁call	-700
▁comple	-701
ize	-702
ener	-703
ner	-704
▁sur	-705
▁avail	-706
▁str	-707
▁Be	-708
▁eas	-709
▁system	-710
▁too	-711
▁made	-712
▁support	-713
▁sk	-714
▁disc	-715
▁exp	-716
▁inte	-717
▁8	-718
az	-719
ages	-720
),	-721
▁team	-722
ock	-723
ven	-724
▁world	-725
▁art	-726
land	-727
▁Se	-728
▁sim	-729
ional	-730
▁pres	-731
ving	-732
pr	-733
ouse	-734
▁det	-735
ss	-736
▁free	-737
arn	-738
▁trans	-739
ives	-740
▁cur	-741
▁mem	-742
arm	-743
iving	-744
olut	-745
▁prof	-746
ues	-747
ric	-748
▁bo	-749
▁Cl	-750
pen	-751
▁post	-752
▁med	-753
▁7	-754
▁before	-755
▁life	-756
▁There	-757
▁available	-758
▁10	-759
▁.	-760
▁each	-761
atch	-762
▁Fr	-763
▁form	-764
▁num	-765
▁love	-766
▁adv	-767
irect	-768
▁New	-769
▁care	-770
unity	-771
▁Ar	-772
▁because	-773
way	-774
other	-775
▁last	-776
▁market	-777
▁service	-778
▁while	-779
ines	-780
de	-781
▁techn	-782
ets	-783
▁around	-784
▁ed	-785
led	-786
▁del	-787
▁program	-788
akes	-789
▁top	-790
oun	-791
▁being	-792
▁list	-793
rest	-794
▁does	-795
▁rep	-796
▁lead	-797
ave	-798
▁project	-799
ason	-800
ivers	-801
▁fun	-802
ince	-803
...	-804
▁Our	-805
ier	-806
alk	-807
▁cle	-808
ining	-809
▁place	-810
▁Ad	-811
▁How	-812
ollow	-813
▁those	-814
▁offer	-815
▁book	-816
▁gra	-817
▁On	-818
▁child	-819
▁ser	-820
▁dr	-821
▁think	-822
▁process	-823
gg	-824
▁different	-825
▁end	-826
ins	-827
▁inter	-828
iqu	-829
▁again	-830
ior	-831
roup	-832
els	-833
ved	-834
rib	-835
▁company	-836
ata	-837
ually	-838
ather	-839
iet	-840
▁services	-841
▁ret	-842
▁experience	-843
▁aut	-844
▁did	-845
▁200	-846
▁cour	-847
▁using	-848
ways	-849
▁pub	-850
▁ref	-851
view	-852
▁lar	-853
rent	-854
▁pur	-855
▁sub	-856
ene	-857
▁To	-858
ature	-859
cept	-860
▁var	-861
read	-862
▁All	-863
▁provide	-864
▁opt	-865
au	-866
▁count	-867
▁hand	-868
▁ext	-869
▁But	-870
▁both	-871
▁Le	-872
ness	-873
aut	-874
aint	-875
▁Pl	-876
▁health	-877
▁found	-878
▁So	-879
▁pol	-880
▁import	-881
▁build	-882
▁9	-883
ized	-884
▁plan	-885
ology	-886
ired	-887
▁They	-888
▁ide	-889
▁really	-890
ars	-891
▁sign	-892
iel	-893
ants	-894
ton	-895
▁run	-896
imes	-897
▁conf	-898
▁With	-899
▁quality	-900
▁val	-901
▁water	-902
▁including	-903
▁char	-904
▁family	-905
ween	-906
▁follow	-907
fect	-908
▁Te	-909
▁special	-910
000	-911
▁open	-912
▁What	-913
▁keep	-914
▁clo	-915
▁ty	-916
ever	-917
▁som	-918
20	-919
▁month	-920
ross	-921
ital	-922
ery	-923
co	-924
orth	-925
▁allow	-926
▁appro	-927
ware	-928
▁Ex	-929
▁small	-930
▁lot	-931
▁organ	-932
ittle	-933
▁sure	-934
▁fil	-935
▁between	-936
▁cent	-937
bers	-938
▁still	-939
less	-940
▁same	-941
plo	-942
▁At	-943
▁pat	-944
▁going	-945
▁few	-946
▁Q	-947
ients	-948
reen	-949
▁school	-950
erg	-951
ered	-952
▁happ	-953
ural	-954
▁def	-955
uc	-956
ah	-957
▁feel	-958
▁frie	-959
▁ve	-960
▁cor	-961
▁result	-962
▁stand	-963
▁When	-964
joy	-965
▁him	-966
▁poss	-967
ug	-968
▁rest	-969
▁phot	-970
▁real	-971
▁area	-972
▁full	-973
▁perform	-974
▁during	-975
ished	-976
▁always	-977
ien	-978
▁online	-979
▁webs	-980
▁though	-981
▁class	-982
▁gener	-983
▁bra	-984
ling	-985
▁three	-986
▁come	-987
▁rece	-988
▁cost	-989
ield	-990
▁proper	-991
▁partic	-992
ute	-993
ves	-994
▁cap	-995
▁access	-996
ik	-997
▁profess	-998
▁interest	-999
▁products	-1000
be	-1001
▁i	-1002
▁light	-1003
▁visit	-1004
ustr	-1005
stand	-1006
ott	-1007
▁direct	-1008
▁pay	-1009
▁Sc	-1010
ruct	-1011
▁number	-1012
ists	-1013
▁point	-1014
▁Ind	-1015
▁mus	-1016
▁Col	-1017
thing	-1018
iver	-1019
ined	-1020
ccess	-1021
▁data	-1022
▁mod	-1023
▁next	-1024
uss	-1025
room	-1026
▁give	-1027
▁little	-1028
▁room	-1029
!!	-1030
▁quest	-1031
▁She	-1032
▁pass	-1033
ames	-1034
cer	-1035
man	-1036
▁report	-1037
ours	-1038
ody	-1039
▁contin	-1040
▁iss	-1041
▁important	-1042
▁better	-1043
ee	-1044
▁current	-1045
load	-1046
ium	-1047
oot	-1048
dition	-1049
▁able	-1050
▁today	-1051
blem	-1052
oney	-1053
ically	-1054
▁resp	-1055
▁group	-1056
▁without	-1057
▁eng	-1058
att	-1059
▁week	-1060
nect	-1061
ploy	-1062
▁spec	-1063
▁opp	-1064
▁level	-1065
▁grow	-1066
ards	-1067
▁dist	-1068
meric	-1069
▁effect	-1070
▁gr	-1071
▁looking	-1072
▁meet	-1073
▁must	-1074
eng	-1075
arly	-1076
▁ob	-1077
▁try	-1078
▁site	-1079
ering	-1080
▁cr	-1081
▁enjoy	-1082
▁since	-1083
▁local	-1084
▁things	-1085
▁problem	-1086
▁Con	-1087
▁state	-1088
▁working	-1089
▁order	-1090
▁oper	-1091
▁Is	-1092
▁equ	-1093
▁put	-1094
▁Ph	-1095
▁within	-1096
▁needs	-1097
▁big	-1098
ething	-1099
▁blo	-1100
ared	-1101
▁exam	-1102
ately	-1103
▁est	-1104
▁incre	-1105
▁second	-1106
▁website	-1107
iversity	-1108
outh	-1109
self	-1110
▁fac	-1111
▁bel	-1112
▁Man	-1113
con	-1114
▁addition	-1115
ateg	-1116
rol	-1117
▁hard	-1118
▁invest	-1119
lection	-1120
ipp	-1121
agement	-1122
work	-1123
▁Z	-1124
▁let	-1125
▁students	-1126
over	-1127
▁view	-1128
orn	-1129
▁Tr	-1130
ique	-1131
cent	-1132
iron	-1133
▁Bl	-1134
▁sal	-1135
▁head	-1136
▁win	-1137
▁power	-1138
▁Americ	-1139
▁contact	-1140
rist	-1141
ential	-1142
▁Pr	-1143
▁days	-1144
aj	-1145
▁prot	-1146
▁game	-1147
▁food	-1148
▁sl	-1149
▁ann	-1150
▁beaut	-1151
▁old	-1152
▁event	-1153
▁easy	-1154
▁applic	-1155
ote	-1156
▁check	-1157
ision	-1158
▁inf	-1159
▁fact	-1160
▁say	-1161
▁Can	-1162
▁cert	-1163
▁something	-1164
▁Do	-1165
▁Res	-1166
here	-1167
▁stre	-1168
▁pract	-1169
▁intern	-1170
vent	-1171
▁bre	-1172
▁perfect	-1173
▁rese	-1174
▁bro	-1175
,000	-1176
▁soc	-1177
▁another	-1178
▁pop	-1179
▁complete	-1180
ivid	-1181
▁These	-1182
▁test	-1183
▁saf	-1184
▁gl	-1185
br	-1186
uck	-1187
▁Sp	-1188
ator	-1189
▁air	-1190
ats	-1191
▁prom	-1192
-1	-1193
▁Jo	-1194
▁Or	-1195
ains	-1196
por	-1197
▁large	-1198
nce	-1199
▁sit	-1200
▁impro	-1201
▁detail	-1202
▁0	-1203
cing	-1204
ills	-1205
▁12	-1206
▁page	-1207
50	-1208
ified	-1209
▁making	-1210
▁My	-1211
▁children	-1212
sh	-1213
ER	-1214
to	-1215
▁success	-1216
inal	-1217
ode	-1218
▁creat	-1219
▁wr	-1220
▁public	-1221
▁‘	-1222
▁met	-1223
▁Cent	-1224
ems	-1225
▁vide	-1226
▁might	-1227
ense	-1228
▁less	-1229
ump	-1230
▁present	-1231
▁aff	-1232
yle	-1233
▁buy	-1234
illion	-1235
ding	-1236
ission	-1237
aterial	-1238
bo	-1239
▁community	-1240
ieve	-1241
ases	-1242
▁unt	-1243
▁jo	-1244
▁learn	-1245
nding	-1246
▁feat	-1247
ope	-1248
▁el	-1249
ush	-1250
ina	-1251
iety	-1252
▁money	-1253
▁toget	-1254
▁together	-1255
▁create	-1256
let	-1257
ised	-1258
▁No	-1259
iful	-1260
ids	-1261
rop	-1262
utes	-1263
ently	-1264
▁never	-1265
▁US	-1266
ogra	-1267
aster	-1268
▁along	-1269
ron	-1270
gin	-1271
▁activ	-1272
aff	-1273
ird	-1274
▁solut	-1275
▁That	-1276
ten	-1277
▁house	-1278
▁connect	-1279
ocus	-1280
▁treat	-1281
▁soft	-1282
ories	-1283
ley	-1284
▁ask	-1285
cl	-1286
▁understand	-1287
."	-1288
ability	-1289
▁got	-1290
ived	-1291
▁name	-1292
▁Co	-1293
▁course	-1294
▁Me	-1295
iven	-1296
ury	-1297
atter	-1298
▁below	-1299
▁change	-1300
aring	-1301
▁employ	-1302
▁ens	-1303
ration	-1304
▁until	-1305
fort	-1306
▁past	-1307
▁include	-1308
▁install	-1309
▁sing	-1310
▁personal	-1311
▁const	-1312
ustry	-1313
▁based	-1314
ify	-1315
▁sw	-1316
ted	-1317
▁chang	-1318
▁18	-1319
enef	-1320
,”	-1321
icle	-1322
viron	-1323
irm	-1324
aper	-1325
▁material	-1326
▁possible	-1327
part	-1328
▁dra	-1329
▁bas	-1330
ann	-1331
app	-1332
▁opport	-1333
fact	-1334
ney	-1335
lish	-1336
▁elect	-1337
▁offers	-1338
▁hot	-1339
ider	-1340
ok	-1341
oring	-1342
▁please	-1343
▁turn	-1344
▁Comm	-1345
▁law	-1346
ows	-1347
min	-1348
▁dev	-1349
of	-1350
▁away	-1351
▁price	-1352
oose	-1353
▁range	-1354
ands	-1355
ember	-1356
nded	-1357
ism	-1358
▁clean	-1359
itc	-1360
side	-1361
oci	-1362
oss	-1363
▁One	-1364
▁four	-1365
▁leg	-1366
▁members	-1367
itions	-1368
▁individ	-1369
▁protect	-1370
▁music	-1371
ising	-1372
▁expect	-1373
ording	-1374
omen	-1375
▁Des	-1376
iting	-1377
▁University	-1378
▁Car	-1379
▁account	-1380
▁arr	-1381
ips	-1382
▁Eng	-1383
▁dem	-1384
▁lo	-1385
ization	-1386
pos	-1387
▁hist	-1388
▁Christ	-1389
▁benef	-1390
▁App	-1391
▁focus	-1392
▁Mar	-1393
▁development	-1394
▁Tra	-1395
urs	-1396
▁require	-1397
▁short	-1398
af	-1399
▁across	-1400
itive	-1401
▁night	-1402
▁mult	-1403
▁Cont	-1404
pecial	-1405
▁En	-1406
▁comes	-1407
▁review	-1408
veral	-1409
▁case	-1410
▁pack	-1411
▁why	-1412
ency	-1413
▁research	-1414
▁pot	-1415
▁quick	-1416
IN	-1417
uper	-1418
▁Che	-1419
▁15	-1420
▁industry	-1421
▁line	-1422
▁customers	-1423
▁educ	-1424
▁2018	-1425
ift	-1426
oice	-1427
▁often	-1428
▁makes	-1429
ured	-1430
▁side	-1431
▁'	-1432
▁fav	-1433
▁season	-1434
vironment	-1435
▁times	-1436
▁bed	-1437
▁After	-1438
ention	-1439
▁beautiful	-1440
▁Please	-1441
▁space	-1442
err	-1443
▁beh	-1444
▁Am	-1445
▁having	-1446
▁Br	-1447
▁11	-1448
▁30	-1449
▁individual	-1450
rip	-1451
▁cou	-1452
30	-1453
▁tool	-1454
uro	-1455
▁tre	-1456
arent	-1457
▁la	-1458
olid	-1459
▁kind	-1460
▁pict	-1461
▁live	-1462
▁become	-1463
▁features	-1464
▁against	-1465
▁Ne	-1466
▁control	-1467
ination	-1468
anies	-1469
ger	-1470
▁purch	-1471
ane	-1472
▁tem	-1473
▁share	-1474
▁low	-1475
▁specific	-1476
▁net	-1477
ape	-1478
ners	-1479
▁vers	-1480
▁cover	-1481
▁professional	-1482
ged	-1483
▁link	-1484
▁flo	-1485
vern	-1486
▁compet	-1487
▁commun	-1488
▁fund	-1489
uture	-1490
▁key	-1491
▁Your	-1492
▁term	-1493
▁Ro	-1494
▁job	-1495
by	-1496
ots	-1497
The	-1498
▁several	-1499
▁move	-1500
ready	-1501
▁hum	-1502
▁city	-1503
vious	-1504
▁social	-1505
▁comb	-1506
▁wind	-1507
▁bring	-1508
▁done	-1509
▁technology	-1510
10	-1511
med	-1512
▁email	-1513
▁hig	-1514
ograph	-1515
▁Dr	-1516
hor	-1517
▁—	-1518
▁country	-1519
▁word	-1520
ably	-1521
osp	-1522
the	-1523
▁Gu	-1524
ajor	-1525
▁May	-1526
▁ste	-1527
▁minutes	-1528
.,	-1529
▁video	-1530
▁hours	-1531
▁Inst	-1532
▁typ	-1533
▁priv	-1534
urance	-1535
▁Fe	-1536
▁di	-1537
▁Comp	-1538
▁body	-1539
▁Serv	-1540
▁record	-1541
anks	-1542
cell	-1543
enn	-1544
▁es	-1545
oor	-1546
▁main	-1547
ides	-1548
▁Ste	-1549
ilities	-1550
▁left	-1551
urity	-1552
▁pie	-1553
opp	-1554
▁X	-1555
ones	-1556
aces	-1557
▁unique	-1558
▁getting	-1559
ilt	-1560
▁means	-1561
▁occ	-1562
rap	-1563
▁already	-1564
▁Intern	-1565
▁orig	-1566
▁provides	-1567
▁camp	-1568
▁questions	-1569
▁redu	-1570
wards	-1571
▁companies	-1572
▁ce	-1573
orts	-1574
▁maint	-1575
▁search	-1576
▁govern	-1577
▁sum	-1578
▁others	-1579
▁ever	-1580
▁hold	-1581
ai	-1582
▁friends	-1583
▁deal	-1584
▁non	-1585
ister	-1586
▁,	-1587
ec	-1588
▁Med	-1589
ances	-1590
alf	-1591
▁prep	-1592
▁lim	-1593
▁cut	-1594
▁ele	-1595
▁future	-1596
▁recom	-1597
▁Fl	-1598
▁thing	-1599
▁Sy	-1600
▁training	-1601
ret	-1602
▁mar	-1603
ufact	-1604
conom	-1605
▁offic	-1606
ON	-1607
▁writ	-1608
▁building	-1609
▁upd	-1610
▁designed	-1611
▁step	-1612
▁environment	-1613
▁print	-1614
resh	-1615
ES	-1616
AT	-1617
book	-1618
▁recomme	-1619
fer	-1620
▁enough	-1621
ream	-1622
duct	-1623
unch	-1624
cle	-1625
bal	-1626
ief	-1627
urther	-1628
▁started	-1629
▁major	-1630
▁bit	-1631
▁cra	-1632
ights	-1633
ches	-1634
ained	-1635
atural	-1636
▁However	-1637
lished	-1638
ries	-1639
augh	-1640
▁staff	-1641
▁works	-1642
▁Ass	-1643
▁size	-1644
▁close	-1645
▁field	-1646
▁vol	-1647
▁et	-1648
▁100	-1649
ex	-1650
▁2019	-1651
▁chall	-1652
inc	-1653
erence	-1654
AN	-1655
uff	-1656
▁rele	-1657
▁web	-1658
▁invol	-1659
▁property	-1660
ribut	-1661
▁value	-1662
▁exc	-1663
▁enc	-1664
▁management	-1665
▁stay	-1666
une	-1667
▁wa	-1668
▁select	-1669
▁mil	-1670
▁won	-1671
ource	-1672
▁Wor	-1673
1.	-1674
▁story	-1675
▁fore	-1676
▁travel	-1677
▁once	-1678
atic	-1679
▁anal	-1680
▁return	-1681
▁address	-1682
▁improve	-1683
▁click	-1684
▁Rep	-1685
arning	-1686
▁customer	-1687
▁Off	-1688
▁results	-1689
▁ensure	-1690
ral	-1691
▁mind	-1692
▁/	-1693
sw	-1694
for	-1695
aim	-1696
▁strong	-1697
▁walk	-1698
aining	-1699
ancial	-1700
▁Im	-1701
▁experien	-1702
▁simple	-1703
ources	-1704
mber	-1705
ript	-1706
▁heart	-1707
AR	-1708
▁clients	-1709
▁young	-1710
▁discuss	-1711
▁bar	-1712
▁areas	-1713
▁million	-1714
▁everything	-1715
son	-1716
place	-1717
▁begin	-1718
come	-1719
▁certain	-1720
ival	-1721
▁far	-1722
▁study	-1723
▁port	-1724
nder	-1725
▁men	-1726
▁called	-1727
▁card	-1728
▁performance	-1729
▁ident	-1730
??	-1731
ledge	-1732
pend	-1733
sel	-1734
hn	-1735
elling	-1736
2.	-1737
ither	-1738
▁news	-1739
omes	-1740
▁School	-1741
resent	-1742
li	-1743
most	-1744
▁doing	-1745
▁download	-1746
ethod	-1747
▁hope	-1748
▁2017	-1749
▁living	-1750
uly	-1751
▁talk	-1752
nov	-1753
▁office	-1754
,"	-1755
yl	-1756
▁God	-1757
isk	-1758
▁assist	-1759
ony	-1760
▁ey	-1761
illed	-1762
▁months	-1763
▁respons	-1764
▁break	-1765
▁known	-1766
▁color	-1767
ental	-1768
▁sound	-1769
ges	-1770
ocu	-1771
▁press	-1772
pro	-1773
▁glo	-1774
▁friend	-1775
hers	-1776
▁following	-1777
▁1.	-1778
▁film	-1779
▁wond	-1780
▁front	-1781
ww	-1782
▁various	-1783
5.	-1784
▁mean	-1785
itchen	-1786
ensive	-1787
▁host	-1788
▁track	-1789
▁choose	-1790
▁z	-1791
idd	-1792
▁mot	-1793
▁series	-1794
▁type	-1795
▁tot	-1796
astic	-1797
▁includes	-1798
abor	-1799
▁style	-1800
ply	-1801
▁16	-1802
▁single	-1803
irl	-1804
▁lat	-1805
▁particular	-1806
▁near	-1807
▁wall	-1808
ergy	-1809
▁yet	-1810
▁Now	-1811
▁Min	-1812
▁Count	-1813
▁above	-1814
▁Not	-1815
arr	-1816
▁24	-1817
▁cook	-1818
ests	-1819
▁wide	-1820
▁tax	-1821
▁content	-1822
play	-1823
▁Bo	-1824
▁particip	-1825
▁issues	-1826
▁Here	-1827
ung	-1828
▁mom	-1829
ume	-1830
▁pick	-1831
roll	-1832
▁manag	-1833
icy	-1834
▁veh	-1835
3.	-1836
gr	-1837
ipment	-1838
▁mess	-1839
▁manufact	-1840
▁comfort	-1841
▁clos	-1842
▁expl	-1843
aur	-1844
▁media	-1845
▁14	-1846
▁Gra	-1847
▁South	-1848
▁charact	-1849
ruction	-1850
OR	-1851
▁City	-1852
▁least	-1853
▁mach	-1854
▁events	-1855
▁located	-1856
▁sn	-1857
ians	-1858
ored	-1859
irt	-1860
▁oil	-1861
fully	-1862
nam	-1863
▁Euro	-1864
▁tour	-1865
▁details	-1866
▁doesn	-1867
▁table	-1868
▁Pre	-1869
lege	-1870
asing	-1871
ched	-1872
▁dig	-1873
▁early	-1874
▁comput	-1875
▁Park	-1876
ille	-1877
▁North	-1878
▁engine	-1879
▁options	-1880
oll	-1881
▁Inc	-1882
upp	-1883
▁aud	-1884
▁Just	-1885
lex	-1886
azing	-1887
▁appear	-1888
aken	-1889
▁flow	-1890
▁amount	-1891
▁software	-1892
hest	-1893
▁phone	-1894
▁American	-1895
▁required	-1896
vert	-1897
▁pan	-1898
pecially	-1899
ables	-1900
iod	-1901
▁ideas	-1902
▁favor	-1903
aps	-1904
▁Sm	-1905
▁energy	-1906
ask	-1907
▁Ke	-1908
▁ess	-1909
ites	-1910
▁par	-1911
▁Qu	-1912
▁throughout	-1913
ED	-1914
▁five	-1915
▁given	-1916
▁women	-1917
rew	-1918
▁strateg	-1919
agn	-1920
▁feature	-1921
▁cred	-1922
eral	-1923
▁popular	-1924
▁pain	-1925
-2	-1926
▁ach	-1927
▁due	-1928
ibility	-1929
▁actually	-1930
▁effective	-1931
▁method	-1932
ogn	-1933
19	-1934
▁black	-1935
▁2.	-1936
▁Dis	-1937
▁text	-1938
ux	-1939
▁ready	-1940
▁United	-1941
▁thought	-1942
ees	-1943
▁further	-1944
itted	-1945
▁cult	-1946
tt	-1947
▁sol	-1948
▁took	-1949
▁taking	-1950
mb	-1951
▁government	-1952
▁white	-1953
ler	-1954
ety	-1955
▁reason	-1956
▁fit	-1957
lebr	-1958
▁added	-1959
▁face	-1960
▁ant	-1961
▁didn	-1962
▁latest	-1963
▁natural	-1964
▁docu	-1965
ulation	-1966
▁came	-1967
gest	-1968
rict	-1969
not	-1970
▁age	-1971
atur	-1972
▁While	-1973
▁John	-1974
ops	-1975
▁relations	-1976
▁percent	-1977
▁box	-1978
ead	-1979
ps	-1980
▁Don	-1981
▁common	-1982
▁receive	-1983
crib	-1984
ibr	-1985
▁insp	-1986
▁says	-1987
ctor	-1988
ball	-1989
urch	-1990
▁199	-1991
▁log	-1992
AS	-1993
▁knowledge	-1994
▁systems	-1995
▁econom	-1996
▁someone	-1997
▁Per	-1998
▁example	-1999
imate	-2000
▁From	-2001
▁games	-2002
▁whole	-2003
▁currently	-2004
back	-2005
▁Apr	-2006
▁High	-2007
▁25	-2008
gle	-2009
gra	-2010
▁provided	-2011
▁among	-2012
▁function	-2013
▁moder	-2014
▁meas	-2015
▁Bu	-2016
▁Cal	-2017
▁Bro	-2018
ided	-2019
▁needed	-2020
▁extra	-2021
icro	-2022
▁created	-2023
▁skin	-2024
ises	-2025
▁super	-2026
▁#	-2027
▁By	-2028
▁dam	-2029
▁safe	-2030
rodu	-2031
▁seen	-2032
aus	-2033
▁happen	-2034
itch	-2035
go	-2036
▁Europe	-2037
▁application	-2038
▁50	-2039
ators	-2040
▁fast	-2041
▁financial	-2042
▁opportunity	-2043
▁National	-2044
▁image	-2045
▁Reg	-2046
▁consider	-2047
▁skills	-2048
▁everyone	-2049
▁miss	-2050
▁lov	-2051
▁Some	-2052
▁idea	-2053
▁history	-2054
▁17	-2055
▁entire	-2056
▁tell	-2057
▁save	-2058
▁State	-2059
▁Pe	-2060
▁etc	-2061
▁ful	-2062
▁sales	-2063
▁autom	-2064
4.	-2065
▁Jan	-2066
▁announ	-2067
▁potential	-2068
▁wood	-2069
▁Tw	-2070
anced	-2071
▁projects	-2072
▁Stud	-2073
▁watch	-2074
▁phys	-2075
▁excell	-2076
▁yourself	-2077
time	-2078
umb	-2079
▁red	-2080
▁park	-2081
▁collect	-2082
▁coll	-2083
6.	-2084
▁tou	-2085
▁insurance	-2086
▁accom	-2087
▁variety	-2088
▁Part	-2089
ification	-2090
▁fre	-2091
▁whether	-2092
aching	-2093
cript	-2094
▁soon	-2095
iple	-2096
▁mob	-2097
idence	-2098
EN	-2099
ires	-2100
ino	-2101
AL	-2102
irc	-2103
▁Ab	-2104
▁answ	-2105
airs	-2106
▁init	-2107
▁especially	-2108
▁network	-2109
▁concer	-2110
▁Are	-2111
▁store	-2112
▁forward	-2113
▁providing	-2114
▁land	-2115
ued	-2116
▁parent	-2117
tend	-2118
▁x	-2119
icult	-2120
▁road	-2121
▁paper	-2122
▁period	-2123
▁dou	-2124
▁foot	-2125
▁went	-2126
▁Will	-2127
▁private	-2128
▁later	-2129
ication	-2130
▁brand	-2131
▁blog	-2132
opy	-2133
▁Austr	-2134
▁World	-2135
arl	-2136
▁ways	-2137
acy	-2138
IS	-2139
▁sat	-2140
icated	-2141
▁happy	-2142
▁equipment	-2143
apt	-2144
▁cond	-2145
▁education	-2146
face	-2147
▁users	-2148
▁Sec	-2149
wh	-2150
▁problems	-2151
▁Acc	-2152
aid	-2153
▁either	-2154
▁fire	-2155
▁learning	-2156
▁clear	-2157
▁represent	-2158
▁sugg	-2159
▁security	-2160
▁bott	-2161
par	-2162
▁believe	-2163
▁author	-2164
▁half	-2165
▁effic	-2166
▁simply	-2167
▁activities	-2168
▁model	-2169
iate	-2170
▁famil	-2171
▁regular	-2172
▁situ	-2173
▁fall	-2174
▁summer	-2175
though	-2176
▁materials	-2177
▁celebr	-2178
uit	-2179
▁kids	-2180
▁spr	-2181
▁Center	-2182
ams	-2183
▁tradition	-2184
▁Get	-2185
▁date	-2186
▁quite	-2187
atform	-2188
▁wonder	-2189
▁impact	-2190
hing	-2191
IT	-2192
idge	-2193
▁treatment	-2194
▁necess	-2195
▁cool	-2196
▁via	-2197
▁file	-2198
▁items	-2199
▁April	-2200
▁Dep	-2201
▁self	-2202
IC	-2203
▁Bra	-2204
▁ago	-2205
▁exist	-2206
AC	-2207
▁solutions	-2208
▁Home	-2209
▁Gr	-2210
▁York	-2211
▁sale	-2212
oon	-2213
▁jour	-2214
▁version	-2215
▁relationship	-2216
▁code	-2217
▁increase	-2218
▁ut	-2219
verage	-2220
▁amazing	-2221
▁official	-2222
aily	-2223
▁choice	-2224
fr	-2225
▁takes	-2226
▁po	-2227
amer	-2228
▁member	-2229
▁Us	-2230
▁nice	-2231
▁collection	-2232
▁Aut	-2233
▁Fin	-2234
▁consum	-2235
▁Thanks	-2236
▁location	-2237
▁Sw	-2238
▁cal	-2239
RE	-2240
arden	-2241
1,	-2242
▁party	-2243
▁user	-2244
▁West	-2245
selves	-2246
▁held	-2247
▁allows	-2248
▁bal	-2249
▁taken	-2250
▁additional	-2251
▁anything	-2252
▁regard	-2253
ilar	-2254
▁easily	-2255
▁hy	-2256
▁Design	-2257
edding	-2258
▁practice	-2259
▁almost	-2260
anc	-2261
▁bath	-2262
▁coming	-2263
▁built	-2264
▁continue	-2265
imum	-2266
▁13	-2267
▁original	-2268
▁standard	-2269
▁drive	-2270
▁Val	-2271
▁prob	-2272
▁Day	-2273
▁contract	-2274
▁wel	-2275
cil	-2276
▁Em	-2277
angu	-2278
▁signific	-2279
reme	-2280
▁County	-2281
▁marketing	-2282
ura	-2283
▁difficult	-2284
▁More	-2285
▁Bar	-2286
▁modern	-2287
oura	-2288
▁running	-2289
▁final	-2290
▁UK	-2291
ana	-2292
uge	-2293
▁position	-2294
▁expert	-2295
itor	-2296
▁mix	-2297
▁human	-2298
▁lay	-2299
ept	-2300
ground	-2301
head	-2302
▁Austral	-2303
▁kitchen	-2304
▁pret	-2305
iring	-2306
▁recommend	-2307
▁explo	-2308
ison	-2309
▁stra	-2310
▁according	-2311
▁issue	-2312
olution	-2313
▁mor	-2314
sc	-2315
▁inside	-2316
▁Ed	-2317
▁firm	-2318
▁fresh	-2319
▁question	-2320
0.	-2321
▁shows	-2322
▁estab	-2323
▁third	-2324
▁production	-2325
▁Ag	-2326
izes	-2327
▁apply	-2328
▁sle	-2329
▁Cor	-2330
▁recogn	-2331
▁claim	-2332
where	-2333
orage	-2334
aving	-2335
overed	-2336
▁received	-2337
ming	-2338
oid	-2339
oogle	-2340
eter	-2341
....	-2342
▁solution	-2343
▁feed	-2344
▁struct	-2345
▁changes	-2346
▁dri	-2347
oud	-2348
ada	-2349
▁included	-2350
▁growth	-2351
▁song	-2352
aging	-2353
▁Ge	-2354
▁sun	-2355
▁crit	-2356
mit	-2357
▁Wind	-2358
▁base	-2359
gress	-2360
ster	-2361
ese	-2362
▁swe	-2363
▁leading	-2364
▁risk	-2365
▁anim	-2366
▁hair	-2367
▁display	-2368
▁Art	-2369
▁previous	-2370
oman	-2371
▁rate	-2372
▁Oct	-2373
▁coun	-2374
itting	-2375
▁option	-2376
elt	-2377
▁outside	-2378
▁recently	-2379
▁Pres	-2380
icles	-2381
▁points	-2382
▁purchase	-2383
▁hon	-2384
▁screen	-2385
rect	-2386
▁role	-2387
hib	-2388
▁international	-2389
▁total	-2390
▁associ	-2391
▁six	-2392
▁pretty	-2393
▁parts	-2394
▁leave	-2395
▁Int	-2396
▁recent	-2397
▁abs	-2398
▁Pol	-2399
hold	-2400
▁platform	-2401
ox	-2402
etimes	-2403
gs	-2404
▁favorite	-2405
▁Mr	-2406
▁determ	-2407
▁TH	-2408
▁Air	-2409
▁quickly	-2410
ham	-2411
my	-2412
▁draw	-2413
▁images	-2414
▁Let	-2415
▁deb	-2416
▁commer	-2417
▁town	-2418
▁photos	-2419
▁exact	-2420
▁looks	-2421
ores	-2422
▁sell	-2423
▁deg	-2424
▁sche	-2425
istration	-2426
▁bad	-2427
▁meeting	-2428
▁weeks	-2429
▁related	-2430
urg	-2431
izing	-2432
▁excellent	-2433
bor	-2434
▁programs	-2435
ffic	-2436
▁medical	-2437
▁speak	-2438
▁Health	-2439
▁writing	-2440
▁ple	-2441
▁Of	-2442
▁accept	-2443
▁defin	-2444
▁mobile	-2445
▁highly	-2446
▁conc	-2447
▁ded	-2448
▁mov	-2449
▁[	-2450
year	-2451
aby	-2452
▁likely	-2453
▁plant	-2454
▁tick	-2455
▁Af	-2456
▁innov	-2457
▁Mc	-2458
▁restaur	-2459
12	-2460
aced	-2461
put	-2462
▁action	-2463
reet	-2464
▁sent	-2465
wood	-2466
▁stop	-2467
▁significant	-2468
ublic	-2469
▁ground	-2470
▁stock	-2471
ecut	-2472
arget	-2473
▁Every	-2474
▁fail	-2475
▁however	-2476
adem	-2477
▁match	-2478
▁computer	-2479
▁*	-2480
mas	-2481
itten	-2482
dule	-2483
▁tools	-2484
▁safety	-2485
▁March	-2486
▁sil	-2487
60	-2488
▁El	-2489
▁Whe	-2490
▁decor	-2491
▁higher	-2492
▁prices	-2493
▁concern	-2494
ipe	-2495
▁cand	-2496
▁usually	-2497
▁inj	-2498
▁wanted	-2499
iday	-2500
▁goal	-2501
erve	-2502
▁His	-2503
▁squ	-2504
▁stat	-2505
▁posted	-2506
▁commercial	-2507
▁worked	-2508
iture	-2509
▁else	-2510
▁matter	-2511
ky	-2512
▁object	-2513
na	-2514
urer	-2515
ha	-2516
based	-2517
▁trying	-2518
▁suggest	-2519
▁block	-2520
▁:	-2521
▁furn	-2522
▁longer	-2523
18	-2524
nes	-2525
uary	-2526
▁bud	-2527
▁challeng	-2528
▁round	-2529
▁request	-2530
▁mark	-2531
▁States	-2532
▁teac	-2533
▁costs	-2534
▁floor	-2535
▁deliver	-2536
▁send	-2537
▁touch	-2538
15	-2539
▁plans	-2540
▁Ac	-2541
9.	-2542
cast	-2543
▁seem	-2544
▁lives	-2545
▁Sund	-2546
▁helps	-2547
ession	-2548
▁behind	-2549
▁Free	-2550
▁board	-2551
▁prevent	-2552
▁worth	-2553
▁general	-2554
▁rent	-2555
ules	-2556
▁isn	-2557
▁types	-2558
▁Great	-2559
▁Also	-2560
▁Her	-2561
▁couple	-2562
▁digital	-2563
▁sens	-2564
▁character	-2565
▁introdu	-2566
▁3.	-2567
ondon	-2568
▁anyone	-2569
▁condition	-2570
▁requirements	-2571
irth	-2572
▁subject	-2573
▁Act	-2574
▁told	-2575
▁tast	-2576
▁arch	-2577
▁Direct	-2578
erc	-2579
▁prior	-2580
▁chance	-2581
▁books	-2582
▁green	-2583
light	-2584
ried	-2585
▁true	-2586
▁dom	-2587
oes	-2588
iable	-2589
▁Bus	-2590
ension	-2591
▁cell	-2592
▁consult	-2593
board	-2594
7.	-2595
▁credit	-2596
▁student	-2597
▁Gl	-2598
▁Par	-2599
▁benefits	-2600
▁tit	-2601
▁Black	-2602
OU	-2603
▁Thank	-2604
▁Friday	-2605
▁ill	-2606
▁piece	-2607
▁caus	-2608
mm	-2609
▁...	-2610
▁planning	-2611
▁resources	-2612
▁fram	-2613
▁words	-2614
OT	-2615
earch	-2616
▁career	-2617
opping	-2618
▁door	-2619
▁leaders	-2620
▁Mon	-2621
▁House	-2622
▁suit	-2623
▁encoura	-2624
▁paint	-2625
▁affect	-2626
▁circ	-2627
▁qual	-2628
▁Soc	-2629
-3	-2630
▁Red	-2631
▁finish	-2632
▁lif	-2633
▁infl	-2634
▁rout	-2635
▁2016	-2636
ville	-2637
mon	-2638
oph	-2639
itut	-2640
reg	-2641
▁girl	-2642
▁center	-2643
▁patients	-2644
OS	-2645
▁profession	-2646
▁bag	-2647
▁picture	-2648
▁40	-2649
▁Book	-2650
▁client	-2651
hel	-2652
▁reading	-2653
▁gives	-2654
org	-2655
▁respect	-2656
▁partners	-2657
▁ability	-2658
▁article	-2659
▁similar	-2660
plement	-2661
ters	-2662
▁remov	-2663
▁daily	-2664
atory	-2665
ern	-2666
ging	-2667
▁Google	-2668
▁Sept	-2669
▁holid	-2670
▁mount	-2671
▁London	-2672
▁America	-2673
▁enter	-2674
▁Click	-2675
▁rad	-2676
▁approach	-2677
▁tal	-2678
▁vehicle	-2679
ek	-2680
▁fully	-2681
▁Sim	-2682
▁agree	-2683
clus	-2684
▁prem	-2685
▁probably	-2686
▁ones	-2687
▁glass	-2688
▁lower	-2689
▁deep	-2690
empt	-2691
unities	-2692
▁entry	-2693
▁gold	-2694
▁International	-2695
▁Add	-2696
▁Associ	-2697
▁Sal	-2698
▁inde	-2699
▁Group	-2700
▁trust	-2701
▁langu	-2702
▁heav	-2703
▁fab	-2704
arant	-2705
▁speed	-2706
▁Most	-2707
uk	-2708
▁global	-2709
▁Then	-2710
iddle	-2711
ceed	-2712
ples	-2713
ached	-2714
ivity	-2715
▁admin	-2716
pose	-2717
▁June	-2718
▁dest	-2719
▁norm	-2720
▁rather	-2721
2,	-2722
▁national	-2723
▁dress	-2724
▁Feb	-2725
▁loss	-2726
ipping	-2727
.”	-2728
ivery	-2729
iter	-2730
illing	-2731
▁fix	-2732
▁aw	-2733
hern	-2734
arter	-2735
▁gradu	-2736
▁op	-2737
▁First	-2738
▁hands	-2739
▁storage	-2740
▁cause	-2741
40	-2742
▁release	-2743
▁Ins	-2744
▁emb	-2745
▁cannot	-2746
just	-2747
▁dry	-2748
▁neg	-2749
▁pictures	-2750
▁photo	-2751
ober	-2752
▁applications	-2753
▁roll	-2754
istic	-2755
AM	-2756
ze	-2757
▁involved	-2758
▁necessary	-2759
▁Cle	-2760
▁fig	-2761
▁lic	-2762
rec	-2763
rown	-2764
▁Satur	-2765
▁achieve	-2766
aign	-2767
▁TV	-2768
oke	-2769
▁machine	-2770
▁reach	-2771
▁directly	-2772
▁pers	-2773
▁Each	-2774
▁weeke	-2775
inary	-2776
lim	-2777
idents	-2778
▁Dav	-2779
▁warm	-2780
osed	-2781
▁heat	-2782
▁target	-2783
▁levels	-2784
▁San	-2785
▁immed	-2786
▁active	-2787
vey	-2788
▁drink	-2789
val	-2790
▁conditions	-2791
cription	-2792
▁sett	-2793
▁average	-2794
8.	-2795
80	-2796
▁policy	-2797
▁Mus	-2798
▁prim	-2799
▁Once	-2800
▁wedding	-2801
▁traditional	-2802
iding	-2803
▁Sunday	-2804
▁commit	-2805
hood	-2806
▁Any	-2807
".	-2808
iles	-2809
▁multiple	-2810
▁businesses	-2811
▁offering	-2812
ny	-2813
▁Aug	-2814
arth	-2815
▁Why	-2816
▁trip	-2817
25	-2818
▁interested	-2819
▁Coun	-2820
▁players	-2821
▁playing	-2822
str	-2823
▁lab	-2824
partment	-2825
▁morning	-2826
▁mag	-2827
ysis	-2828
ought	-2829
ffee	-2830
▁Rem	-2831
▁Well	-2832
▁La	-2833
We	-2834
▁creating	-2835
▁bank	-2836
▁Many	-2837
▁late	-2838
▁January	-2839
nal	-2840
▁developed	-2841
ares	-2842
▁legal	-2843
▁successful	-2844
▁polit	-2845
itation	-2846
▁Net	-2847
eal	-2848
itect	-2849
pri	-2850
▁document	-2851
▁implement	-2852
▁dise	-2853
ashion	-2854
▁separ	-2855
ties	-2856
ooth	-2857
▁huge	-2858
▁Face	-2859
ipped	-2860
▁club	-2861
artment	-2862
▁Har	-2863
▁weight	-2864
ET	-2865
▁aim	-2866
iation	-2867
▁opportunities	-2868
▁essential	-2869
end	-2870
▁ball	-2871
▁India	-2872
▁source	-2873
▁asked	-2874
▁supply	-2875
▁cat	-2876
▁decision	-2877
▁organization	-2878
ole	-2879
▁Out	-2880
▁Post	-2881
ades	-2882
▁Saturday	-2883
uel	-2884
atives	-2885
▁device	-2886
3,	-2887
▁October	-2888
▁Christmas	-2889
▁Pat	-2890
▁giving	-2891
▁upon	-2892
erous	-2893
//	-2894
▁Service	-2895
▁appl	-2896
ocol	-2897
▁gen	-2898
▁cy	-2899
▁Since	-2900
▁repair	-2901
▁English	-2902
▁wish	-2903
ellow	-2904
▁Check	-2905
▁correct	-2906
▁Ser	-2907
▁Trans	-2908
▁award	-2909
▁experienced	-2910
▁employees	-2911
▁shop	-2912
urb	-2913
▁cases	-2914
▁seems	-2915
▁Cons	-2916
▁Up	-2917
▁gift	-2918
asons	-2919
olf	-2920
▁extreme	-2921
▁streng	-2922
▁answer	-2923
▁construction	-2924
▁moment	-2925
▁mass	-2926
▁hotel	-2927
▁pool	-2928
▁camer	-2929
mission	-2930
isc	-2931
▁parents	-2932
▁categ	-2933
▁promot	-2934
aves	-2935
▁attention	-2936
▁smart	-2937
▁Over	-2938
▁sites	-2939
aches	-2940
▁max	-2941
▁wonderful	-2942
▁suppl	-2943
▁Business	-2944
▁China	-2945
://	-2946
enty	-2947
▁nothing	-2948
▁hous	-2949
▁afford	-2950
▁budget	-2951
▁replace	-2952
▁Afric	-2953
ening	-2954
▁Prof	-2955
▁countries	-2956
▁Best	-2957
ault	-2958
”.	-2959
now	-2960
enge	-2961
▁homes	-2962
igation	-2963
▁bedroom	-2964
ington	-2965
▁goals	-2966
▁September	-2967
▁section	-2968
▁Find	-2969
▁surpr	-2970
▁Calif	-2971
▁except	-2972
▁Techn	-2973
▁photograph	-2974
▁complex	-2975
▁growing	-2976
iol	-2977
door	-2978
aly	-2979
ude	-2980
irit	-2981
▁Tod	-2982
▁enh	-2983
▁released	-2984
▁guide	-2985
▁decided	-2986
▁attract	-2987
▁express	-2988
▁--	-2989
▁2015	-2990
▁Mond	-2991
11	-2992
amb	-2993
▁starting	-2994
aged	-2995
▁written	-2996
▁fish	-2997
itely	-2998
▁Mich	-2999
▁hit	-3000
▁Down	-3001
▁July	-3002
▁President	-3003
▁fine	-3004
▁emerg	-3005
▁healthy	-3006
sy	-3007
OM	-3008
like	-3009
▁Bel	-3010
▁load	-3011
▁sold	-3012
▁interesting	-3013
▁dream	-3014
▁campaign	-3015
▁hour	-3016
imately	-3017
apan	-3018
▁farm	-3019
▁cash	-3020
TM	-3021
▁earn	-3022
▁Department	-3023
▁Nove	-3024
▁gar	-3025
▁capt	-3026
iam	-3027
▁Read	-3028
▁seek	-3029
lock	-3030
▁Cr	-3031
▁published	-3032
gy	-3033
▁highest	-3034
▁Services	-3035
▁serious	-3036
▁appoint	-3037
istry	-3038
▁mat	-3039
▁Look	-3040
▁join	-3041
ING	-3042
▁lost	-3043
▁families	-3044
▁expected	-3045
▁instead	-3046
▁imm	-3047
▁groups	-3048
▁£	-3049
▁completely	-3050
ara	-3051
▁guarant	-3052
▁satis	-3053
LL	-3054
ford	-3055
ms	-3056
ama	-3057
porate	-3058
mark	-3059
▁message	-3060
▁iP	-3061
ctions	-3062
▁aware	-3063
key	-3064
▁positive	-3065
▁|	-3066
▁concept	-3067
▁pages	-3068
▁serve	-3069
house	-3070
iant	-3071
▁places	-3072
▁terms	-3073
rup	-3074
▁Ang	-3075
▁Good	-3076
4,	-3077
ague	-3078
ester	-3079
▁Gener	-3080
▁former	-3081
▁eye	-3082
▁Spr	-3083
▁goes	-3084
▁note	-3085
▁4.	-3086
cies	-3087
▁Del	-3088
gar	-3089
umn	-3090
16	-3091
orge	-3092
▁write	-3093
▁remember	-3094
ornia	-3095
▁weekend	-3096
▁mid	-3097
▁organiz	-3098
▁limited	-3099
▁delivery	-3100
off	-3101
raft	-3102
▁spend	-3103
▁industr	-3104
▁garden	-3105
aker	-3106
▁saw	-3107
▁death	-3108
ospital	-3109
▁itself	-3110
▁IN	-3111
▁vac	-3112
▁System	-3113
▁Port	-3114
▁neigh	-3115
▁consist	-3116
▁individuals	-3117
▁ideal	-3118
ma	-3119
▁Ant	-3120
▁helping	-3121
▁surround	-3122
ength	-3123
▁sty	-3124
itute	-3125
▁Brit	-3126
EC	-3127
▁advant	-3128
▁copy	-3129
AP	-3130
▁impress	-3131
ological	-3132
cember	-3133
▁carry	-3134
▁investment	-3135
wide	-3136
bit	-3137
rel	-3138
▁hear	-3139
▁sense	-3140
▁interact	-3141
▁selection	-3142
▁rock	-3143
▁integr	-3144
mod	-3145
▁ep	-3146
pper	-3147
enance	-3148
▁describ	-3149
▁Facebook	-3150
▁cross	-3151
press	-3152
▁Make	-3153
▁College	-3154
abin	-3155
St	-3156
pped	-3157
-0	-3158
onse	-3159
enior	-3160
▁Monday	-3161
iction	-3162
▁California	-3163
EO	-3164
▁region	-3165
▁East	-3166
▁See	-3167
▁Inter	-3168
▁avoid	-3169
▁slow	-3170
zy	-3171
aul	-3172
▁Call	-3173
▁Hot	-3174
▁Mod	-3175
▁court	-3176
▁November	-3177
▁pattern	-3178
▁ble	-3179
▁transport	-3180
▁themselves	-3181
▁Found	-3182
▁bi	-3183
▁Hel	-3184
▁drop	-3185
het	-3186
▁exactly	-3187
▁path	-3188
▁conduct	-3189
rought	-3190
▁div	-3191
rench	-3192
▁wait	-3193
▁Even	-3194
▁furniture	-3195
amed	-3196
▁Germ	-3197
▁craft	-3198
▁altern	-3199
ses	-3200
▁Japan	-3201
bum	-3202
▁reduce	-3203
▁uses	-3204
idered	-3205
▁+	-3206
▁prec	-3207
icate	-3208
US	-3209
▁offered	-3210
▁led	-3211
▁birth	-3212
▁effort	-3213
▁60	-3214
17	-3215
aries	-3216
▁schools	-3217
▁began	-3218
▁damage	-3219
▁December	-3220
▁annual	-3221
▁Market	-3222
▁sam	-3223
▁adult	-3224
▁Law	-3225
▁Gold	-3226
isions	-3227
▁completed	-3228
▁comfortable	-3229
▁eat	-3230
▁collabor	-3231
▁announced	-3232
yond	-3233
▁creative	-3234
▁band	-3235
oming	-3236
▁White	-3237
▁estate	-3238
▁moving	-3239
▁ten	-3240
ruary	-3241
▁stress	-3242
▁pressure	-3243
▁temper	-3244
▁War	-3245
lin	-3246
gu	-3247
▁ver	-3248
▁dark	-3249
inner	-3250
▁nut	-3251
▁efficient	-3252
▁owners	-3253
▁nature	-3254
hens	-3255
▁wear	-3256
▁advice	-3257
▁devices	-3258
▁obs	-3259
▁Street	-3260
▁progress	-3261
▁Cour	-3262
▁loved	-3263
pre	-3264
urt	-3265
coming	-3266
ett	-3267
▁rev	-3268
▁August	-3269
▁understanding	-3270
▁weather	-3271
:00	-3272
▁198	-3273
▁Play	-3274
ibrary	-3275
▁Go	-3276
itter	-3277
pendent	-3278
▁assess	-3279
right	-3280
unte	-3281
▁hor	-3282
▁regarding	-3283
▁AN	-3284
▁baby	-3285
▁comment	-3286
rows	-3287
los	-3288
▁IT	-3289
▁Love	-3290
▁Windows	-3291
▁double	-3292
▁language	-3293
▁Today	-3294
▁movie	-3295
▁towards	-3296
idential	-3297
▁internet	-3298
chan	-3299
▁relax	-3300
▁dru	-3301
band	-3302
porary	-3303
▁largest	-3304
▁attend	-3305
roid	-3306
▁easier	-3307
▁existing	-3308
▁experts	-3309
▁ing	-3310
▁ult	-3311
▁tele	-3312
▁attack	-3313
ancy	-3314
iling	-3315
▁Use	-3316
▁benefit	-3317
▁Work	-3318
▁mention	-3319
▁obt	-3320
▁sometimes	-3321
ida	-3322
▁thinking	-3323
ube	-3324
ager	-3325
agram	-3326
▁lock	-3327
▁rights	-3328
ications	-3329
▁>	-3330
▁lots	-3331
▁February	-3332
Th	-3333
▁appropri	-3334
▁files	-3335
▁rates	-3336
change	-3337
▁Green	-3338
▁physical	-3339
▁propos	-3340
▁pet	-3341
▁conven	-3342
icious	-3343
▁steel	-3344
-4	-3345
▁Dec	-3346
▁fair	-3347
▁tag	-3348
▁unit	-3349
▁myself	-3350
ulations	-3351
▁ge	-3352
ica	-3353
70	-3354
anch	-3355
▁wrong	-3356
esome	-3357
▁contain	-3358
▁af	-3359
urning	-3360
▁purpose	-3361
roud	-3362
▁activity	-3363
iced	-3364
▁batter	-3365
▁htt	-3366
▁Av	-3367
ively	-3368
▁Dist	-3369
word	-3370
PS	-3371
asc	-3372
▁teams	-3373
▁Supp	-3374
▁blue	-3375
▁secure	-3376
▁histor	-3377
▁setting	-3378
▁subs	-3379
▁button	-3380
▁blood	-3381
▁analy	-3382
▁Class	-3383
▁sleep	-3384
▁King	-3385
▁sus	-3386
▁professionals	-3387
wor	-3388
▁definitely	-3389
attle	-3390
ID	-3391
▁Internet	-3392
▁gets	-3393
▁pull	-3394
▁overall	-3395
oms	-3396
▁Australia	-3397
useum	-3398
▁Program	-3399
▁attempt	-3400
▁exerc	-3401
▁Russ	-3402
▁broad	-3403
▁background	-3404
▁convers	-3405
pm	-3406
▁advert	-3407
den	-3408
▁spot	-3409
ils	-3410
▁Have	-3411
▁gas	-3412
▁became	-3413
▁dedicated	-3414
▁21	-3415
ancing	-3416
▁discount	-3417
▁interview	-3418
tended	-3419
▁Hall	-3420
▁Club	-3421
antly	-3422
▁Vis	-3423
▁stage	-3424
vant	-3425
▁exhib	-3426
▁Whether	-3427
▁1,	-3428
▁played	-3429
ded	-3430
imal	-3431
ederal	-3432
vest	-3433
cel	-3434
ronic	-3435
▁Thurs	-3436
▁contribut	-3437
estival	-3438
▁sust	-3439
▁apprec	-3440
▁charge	-3441
▁analysis	-3442
▁thanks	-3443
▁Phot	-3444
▁flav	-3445
▁surface	-3446
▁dy	-3447
▁execut	-3448
▁coffee	-3449
▁Spe	-3450
▁holiday	-3451
▁boy	-3452
▁hop	-3453
▁difference	-3454
alu	-3455
▁sweet	-3456
▁Other	-3457
-5	-3458
▁dog	-3459
▁aspect	-3460
▁bathroom	-3461
field	-3462
▁reve	-3463
▁Loc	-3464
▁demand	-3465
▁stories	-3466
▁repl	-3467
▁Company	-3468
99	-3469
▁•	-3470
▁reported	-3471
▁stick	-3472
▁Wash	-3473
▁Wed	-3474
bert	-3475
▁acqu	-3476
▁models	-3477
unt	-3478
▁window	-3479
▁considered	-3480
rapy	-3481
des	-3482
▁electric	-3483
▁0.	-3484
andsc	-3485
▁wine	-3486
oul	-3487
▁degree	-3488
ologies	-3489
▁distribut	-3490
▁welcome	-3491
inter	-3492
olute	-3493
▁Pal	-3494
▁feet	-3495
▁cards	-3496
ey	-3497
▁$1	-3498
▁friendly	-3499
iques	-3500
▁album	-3501
rast	-3502
▁Rec	-3503
▁Office	-3504
▁fant	-3505
unk	-3506
▁stuff	-3507
▁Micro	-3508
erved	-3509
▁initial	-3510
ibly	-3511
ari	-3512
▁retail	-3513
▁situation	-3514
▁fight	-3515
ertain	-3516
▁adjust	-3517
▁spent	-3518
▁proced	-3519
bon	-3520
▁player	-3521
▁Association	-3522
▁manufacturer	-3523
duc	-3524
▁sports	-3525
▁prefer	-3526
▁plus	-3527
▁reviews	-3528
wise	-3529
▁compon	-3530
▁European	-3531
▁pow	-3532
odes	-3533
▁reports	-3534
▁colors	-3535
▁pieces	-3536
▁response	-3537
hol	-3538
▁candid	-3539
care	-3540
▁influ	-3541
▁confirm	-3542
▁Open	-3543
▁partner	-3544
▁Canada	-3545
▁mother	-3546
▁Indian	-3547
ders	-3548
▁installation	-3549
▁instruct	-3550
▁cleaning	-3551
tee	-3552
▁bottom	-3553
▁Develop	-3554
iately	-3555
▁Oh	-3556
▁schedule	-3557
▁Sk	-3558
zz	-3559
▁shopping	-3560
▁basic	-3561
▁Thursday	-3562
▁thous	-3563
AD	-3564
▁pred	-3565
▁Council	-3566
▁paid	-3567
icing	-3568
▁truly	-3569
▁Island	-3570
ira	-3571
▁Mac	-3572
▁journey	-3573
▁item	-3574
▁Lear	-3575
formation	-3576
▁lines	-3577
aming	-3578
▁protection	-3579
▁tips	-3580
atically	-3581
▁train	-3582
▁culture	-3583
▁graph	-3584
allery	-3585
▁produce	-3586
▁finished	-3587
▁straight	-3588
che	-3589
▁metal	-3590
▁stru	-3591
▁fill	-3592
▁IS	-3593
▁Tues	-3594
In	-3595
▁beginning	-3596
▁err	-3597
▁jud	-3598
▁feeling	-3599
anging	-3600
▁frequ	-3601
xic	-3602
▁vict	-3603
▁rooms	-3604
▁Phil	-3605
200	-3606
etic	-3607
▁Web	-3608
▁served	-3609
▁dead	-3610
▁Year	-3611
▁demon	-3612
▁college	-3613
▁Tex	-3614
8,	-3615
__	-3616
▁According	-3617
▁Management	-3618
EL	-3619
▁continu	-3620
▁maintenance	-3621
▁fashion	-3622
▁listed	-3623
nces	-3624
▁technical	-3625
▁measure	-3626
uth	-3627
▁thank	-3628
▁patient	-3629
▁brought	-3630
▁nation	-3631
▁challenge	-3632
phone	-3633
▁payment	-3634
▁lik	-3635
▁guests	-3636
▁update	-3637
▁behav	-3638
▁suff	-3639
▁depe	-3640
▁pen	-3641
▁passion	-3642
▁THE	-3643
▁driving	-3644
▁proud	-3645
▁police	-3646
▁imag	-3647
arlier	-3648
▁powerful	-3649
▁facilities	-3650
que	-3651
▁Care	-3652
▁approx	-3653
oles	-3654
▁increasing	-3655
IP	-3656
icip	-3657
▁respond	-3658
▁occas	-3659
mat	-3660
iger	-3661
▁length	-3662
▁eyes	-3663
rey	-3664
▁useful	-3665
▁clin	-3666
▁tried	-3667
▁beyond	-3668
▁immediately	-3669
▁responsible	-3670
--	-3671
▁basis	-3672
▁expand	-3673
▁Plan	-3674
▁camera	-3675
▁PC	-3676
▁Jack	-3677
▁master	-3678
hips	-3679
▁war	-3680
▁extremely	-3681
▁Flor	-3682
▁util	-3683
OL	-3684
▁Take	-3685
iny	-3686
▁viol	-3687
sp	-3688
EM	-3689
cause	-3690
haps	-3691
▁bow	-3692
▁roof	-3693
fit	-3694
▁Last	-3695
▁mission	-3696
oos	-3697
▁Top	-3698
▁son	-3699
▁disease	-3700
▁Ir	-3701
▁Mem	-3702
▁designs	-3703
7,	-3704
overn	-3705
▁sand	-3706
▁reflect	-3707
istics	-3708
▁5.	-3709
▁smooth	-3710
tion	-3711
▁Sch	-3712
▁cold	-3713
▁steps	-3714
▁standards	-3715
▁appropriate	-3716
▁Mal	-3717
oly	-3718
▁subst	-3719
▁Mor	-3720
▁colour	-3721
▁explore	-3722
pite	-3723
▁cars	-3724
▁Although	-3725
▁Super	-3726
▁classic	-3727
estern	-3728
ference	-3729
▁effects	-3730
▁shoot	-3731
aught	-3732
▁Wednes	-3733
ael	-3734
▁Tuesday	-3735
ned	-3736
▁flex	-3737
▁ST	-3738
hy	-3739
nown	-3740
▁Download	-3741
▁gave	-3742
!!!	-3743
▁Met	-3744
▁map	-3745
▁Bank	-3746
▁miles	-3747
used	-3748
▁structure	-3749
▁Educ	-3750
aling	-3751
undred	-3752
acity	-3753
▁Sub	-3754
▁manage	-3755
▁trade	-3756
oices	-3757
▁session	-3758
▁Rock	-3759
arc	-3760
▁numbers	-3761
▁transfer	-3762
▁26	-3763
imin	-3764
ection	-3765
▁increased	-3766
▁Board	-3767
▁ahead	-3768
▁doll	-3769
▁advanced	-3770
▁architect	-3771
▁cup	-3772
▁nearly	-3773
9,	-3774
▁heard	-3775
▁ingred	-3776
▁identify	-3777
tra	-3778
▁chem	-3779
▁Road	-3780
fl	-3781
▁dat	-3782
▁reasons	-3783
▁French	-3784
14	-3785
▁views	-3786
ieved	-3787
itary	-3788
▁exclus	-3789
▁During	-3790
▁Ann	-3791
BC	-3792
It	-3793
▁winter	-3794
▁covered	-3795
▁outdoor	-3796
ixt	-3797
force	-3798
▁mill	-3799
75	-3800
▁Jes	-3801
▁Water	-3802
▁22	-3803
amin	-3804
dy	-3805
venue	-3806
iend	-3807
▁cast	-3808
othing	-3809
▁Contact	-3810
▁Texas	-3811
▁sharing	-3812
▁helped	-3813
set	-3814
▁onto	-3815
▁vill	-3816
-6	-3817
▁wild	-3818
▁opening	-3819
▁established	-3820
orial	-3821
▁challenges	-3822
88	-3823
▁emot	-3824
▁David	-3825
▁organizations	-3826
▁spirit	-3827
▁beauty	-3828
oe	-3829
▁title	-3830
ously	-3831
▁incred	-3832
▁Su	-3833
mitted	-3834
▁volunte	-3835
▁Lake	-3836
▁Wood	-3837
▁beach	-3838
▁shown	-3839
▁micro	-3840
▁cru	-3841
▁Sing	-3842
▁race	-3843
▁Wednesday	-3844
▁contains	-3845
▁Power	-3846
izz	-3847
▁cry	-3848
▁owner	-3849
▁motor	-3850
▁finally	-3851
:30	-3852
▁wasn	-3853
▁Research	-3854
akers	-3855
▁advantage	-3856
▁?	-3857
▁grand	-3858
fast	-3859
▁Custom	-3860
▁cas	-3861
▁properties	-3862
eds	-3863
body	-3864
▁accommod	-3865
iar	-3866
▁maintain	-3867
▁lux	-3868
▁evening	-3869
▁strategy	-3870
▁conference	-3871
▁particularly	-3872
▁Yes	-3873
▁changed	-3874
rehens	-3875
▁handle	-3876
ences	-3877
▁Som	-3878
lement	-3879
▁felt	-3880
ald	-3881
▁Sum	-3882
▁normal	-3883
▁methods	-3884
sych	-3885
▁resist	-3886
▁certainly	-3887
soft	-3888
ports	-3889
▁church	-3890
▁economic	-3891
aughter	-3892
pet	-3893
▁tim	-3894
unning	-3895
▁launch	-3896
▁associated	-3897
▁spread	-3898
▁absolute	-3899
▁strength	-3900
▁Adv	-3901
▁remain	-3902
▁efforts	-3903
▁Est	-3904
anta	-3905
iency	-3906
▁Apple	-3907
▁experiences	-3908
▁jobs	-3909
▁shape	-3910
▁Je	-3911
▁woman	-3912
ocolate	-3913
more	-3914
umin	-3915
▁remove	-3916
box	-3917
▁rich	-3918
istr	-3919
▁evalu	-3920
▁capital	-3921
▁occur	-3922
standing	-3923
▁task	-3924
▁solid	-3925
▁maybe	-3926
▁spring	-3927
▁artist	-3928
▁fan	-3929
arily	-3930
▁guid	-3931
▁Ret	-3932
▁Fam	-3933
ule	-3934
ij	-3935
▁Sam	-3936
ION	-3937
▁billion	-3938
▁package	-3939
▁institut	-3940
▁restaurant	-3941
▁communities	-3942
ulated	-3943
/2	-3944
▁Wall	-3945
▁affordable	-3946
ios	-3947
▁thr	-3948
▁Life	-3949
▁academ	-3950
13	-3951
▁lack	-3952
▁meaning	-3953
▁23	-3954
ales	-3955
▁News	-3956
▁wire	-3957
irr	-3958
▁2014	-3959
order	-3960
term	-3961
▁Str	-3962
▁residents	-3963
▁ter	-3964
ST	-3965
dom	-3966
▁Pay	-3967
▁finding	-3968
▁dining	-3969
▁landsc	-3970
ened	-3971
▁fly	-3972
icine	-3973
enture	-3974
▁Bay	-3975
▁bright	-3976
▁notice	-3977
▁heavy	-3978
▁Ide	-3979
▁visitors	-3980
ails	-3981
aith	-3982
▁fans	-3983
▁Vol	-3984
▁Elect	-3985
IM	-3986
▁Because	-3987
▁hundred	-3988
▁science	-3989
▁communication	-3990
▁AC	-3991
▁larger	-3992
encies	-3993
▁Bre	-3994
▁chann	-3995
▁arrange	-3996
▁sustain	-3997
▁requires	-3998
▁pump	-3999
▁tree	-4000
▁Hy	-4001
itude	-4002
▁Director	-4003
atever	-4004
▁videos	-4005
▁100%	-4006
▁competition	-4007
new	-4008
▁taste	-4009
▁turned	-4010
▁worksh	-4011
▁wants	-4012
▁techniques	-4013
▁adding	-4014
▁cancer	-4015
▁middle	-4016
▁developing	-4017
▁Sur	-4018
▁driver	-4019
ris	-4020
▁fabric	-4021
▁plenty	-4022
▁comments	-4023
▁selected	-4024
free	-4025
▁exciting	-4026
▁cheap	-4027
down	-4028
ented	-4029
▁Institute	-4030
▁statement	-4031
orrow	-4032
ipl	-4033
ken	-4034
acing	-4035
▁Engine	-4036
▁shared	-4037
oma	-4038
▁political	-4039
▁Paul	-4040
▁fra	-4041
▁traffic	-4042
▁director	-4043
▁Special	-4044
azon	-4045
▁Rel	-4046
▁tickets	-4047
IL	-4048
▁discover	-4049
▁mechan	-4050
ounds	-4051
▁slight	-4052
▁compared	-4053
istered	-4054
▁Mot	-4055
▁cream	-4056
▁named	-4057
▁fat	-4058
oyal	-4059
▁loan	-4060
bu	-4061
plate	-4062
▁scient	-4063
▁peace	-4064
▁Ev	-4065
▁born	-4066
cks	-4067
ette	-4068
▁forget	-4069
ivil	-4070
▁star	-4071
▁Form	-4072
▁Child	-4073
▁Govern	-4074
▁prepared	-4075
▁produced	-4076
▁bur	-4077
▁origin	-4078
mp	-4079
▁incor	-4080
▁Big	-4081
▁followed	-4082
inese	-4083
▁Build	-4084
▁Cong	-4085
aled	-4086
",	-4087
sequ	-4088
▁Glo	-4089
▁Sil	-4090
itors	-4091
▁Mo	-4092
▁courses	-4093
▁Church	-4094
5,	-4095
▁liter	-4096
▁multi	-4097
▁allowed	-4098
▁Cur	-4099
iverse	-4100
▁links	-4101
▁Mount	-4102
▁Washington	-4103
▁sched	-4104
▁states	-4105
▁Ob	-4106
▁General	-4107
semb	-4108
vin	-4109
▁eight	-4110
▁presented	-4111
▁Mart	-4112
▁moved	-4113
▁station	-4114
▁connection	-4115
▁medium	-4116
ago	-4117
▁Camp	-4118
▁surv	-4119
▁River	-4120
▁elements	-4121
▁80	-4122
-20	-4123
▁keeping	-4124
▁www	-4125
rical	-4126
▁island	-4127
▁Fore	-4128
▁studies	-4129
▁fold	-4130
▁testing	-4131
▁British	-4132
▁innovative	-4133
▁extensive	-4134
▁breat	-4135
▁Project	-4136
▁shall	-4137
▁@	-4138
▁classes	-4139
▁updated	-4140
▁veget	-4141
▁primary	-4142
ads	-4143
▁Dem	-4144
▁shot	-4145
▁sort	-4146
▁teaching	-4147
▁saying	-4148
▁Profess	-4149
iber	-4150
▁dep	-4151
▁Arch	-4152
asy	-4153
▁Sun	-4154
▁windows	-4155
▁Dan	-4156
▁father	-4157
▁earlier	-4158
”,	-4159
▁installed	-4160
arge	-4161
ishes	-4162
▁letter	-4163
▁names	-4164
▁truck	-4165
▁greater	-4166
rom	-4167
▁hus	-4168
▁operations	-4169
ipes	-4170
works	-4171
rete	-4172
▁Tem	-4173
▁pair	-4174
▁plants	-4175
▁quarter	-4176
▁advance	-4177
▁James	-4178
▁balance	-4179
see	-4180
▁snow	-4181
▁biggest	-4182
ym	-4183
▁wife	-4184
▁critical	-4185
iration	-4186
▁Mag	-4187
▁Jesus	-4188
eed	-4189
▁Florida	-4190
ros	-4191
▁Foundation	-4192
ula	-4193
▁Product	-4194
▁determine	-4195
▁hom	-4196
ady	-4197
▁bul	-4198
▁server	-4199
▁values	-4200
▁theme	-4201
▁buying	-4202
ona	-4203
▁AP	-4204
▁awesome	-4205
ota	-4206
inger	-4207
▁PR	-4208
▁famous	-4209
top	-4210
▁rules	-4211
▁expertise	-4212
▁alone	-4213
▁excited	-4214
▁90	-4215
▁sector	-4216
ka	-4217
▁waiting	-4218
erry	-4219
▁Light	-4220
▁cit	-4221
isation	-4222
▁egg	-4223
▁upgra	-4224
▁artists	-4225
▁trou	-4226
▁demonstr	-4227
ado	-4228
▁format	-4229
▁practices	-4230
▁Fire	-4231
▁Beach	-4232
imb	-4233
icon	-4234
▁USA	-4235
paper	-4236
▁aren	-4237
▁virt	-4238
▁initi	-4239
rehensive	-4240
uce	-4241
ga	-4242
▁pros	-4243
▁People	-4244
▁facility	-4245
ero	-4246
▁strugg	-4247
▁vot	-4248
▁Blue	-4249
▁menu	-4250
▁category	-4251
OW	-4252
▁princ	-4253
▁fee	-4254
ulate	-4255
▁leader	-4256
▁Who	-4257
▁sav	-4258
▁ice	-4259
▁Music	-4260
▁capacity	-4261
▁vehicles	-4262
500	-4263
omb	-4264
sm	-4265
dd	-4266
icken	-4267
▁Public	-4268
enses	-4269
▁Mill	-4270
▁calc	-4271
▁transl	-4272
▁vision	-4273
look	-4274
▁Two	-4275
▁Rich	-4276
▁register	-4277
▁fantastic	-4278
▁numerous	-4279
raw	-4280
▁matt	-4281
ampions	-4282
apers	-4283
▁2010	-4284
▁doors	-4285
▁II	-4286
▁pal	-4287
▁magn	-4288
▁delicious	-4289
▁Next	-4290
▁Star	-4291
▁locations	-4292
▁combination	-4293
▁Angel	-4294
▁Mil	-4295
▁mis	-4296
▁audience	-4297
▁interior	-4298
▁funds	-4299
▁placed	-4300
▁visual	-4301
▁Back	-4302
▁gain	-4303
▁ingredients	-4304
▁rank	-4305
pective	-4306
▁seeing	-4307
▁cabin	-4308
hone	-4309
▁Enter	-4310
▁forms	-4311
▁although	-4312
▁Real	-4313
▁dinner	-4314
▁seven	-4315
▁thousands	-4316
cut	-4317
▁2013	-4318
overy	-4319
▁cloud	-4320
leg	-4321
▁AM	-4322
▁rain	-4323
ifts	-4324
ying	-4325
▁brings	-4326
usher	-4327
▁luck	-4328
▁Development	-4329
▁haven	-4330
▁laun	-4331
▁HD	-4332
▁threat	-4333
▁shipping	-4334
▁encourage	-4335
▁panel	-4336
▁Online	-4337
▁corporate	-4338
ston	-4339
▁switch	-4340
▁counter	-4341
irection	-4342
▁centre	-4343
▁parking	-4344
▁Color	-4345
▁voice	-4346
mal	-4347
▁recipe	-4348
▁Hol	-4349
▁Community	-4350
▁income	-4351
▁senior	-4352
UR	-4353
▁doub	-4354
▁Court	-4355
▁serving	-4356
▁Set	-4357
▁status	-4358
ervation	-4359
abilities	-4360
▁changing	-4361
ordin	-4362
▁establish	-4363
TS	-4364
▁plastic	-4365
▁Mark	-4366
▁whose	-4367
▁Det	-4368
▁sup	-4369
emporary	-4370
▁investig	-4371
▁Chinese	-4372
▁Valley	-4373
▁remind	-4374
▁lovely	-4375
▁Through	-4376
▁Education	-4377
Ch	-4378
▁swim	-4379
dr	-4380
▁Team	-4381
LE	-4382
▁Keep	-4383
▁knew	-4384
▁den	-4385
▁rob	-4386
▁harm	-4387
ctors	-4388
MS	-4389
atively	-4390
▁Sl	-4391
oop	-4392
▁Michael	-4393
▁temperature	-4394
▁relevant	-4395
▁er	-4396
▁operating	-4397
▁flat	-4398
▁surg	-4399
▁selling	-4400
▁Rob	-4401
▁Fil	-4402
▁Food	-4403
▁mail	-4404
▁Start	-4405
▁reliable	-4406
usion	-4407
▁Word	-4408
▁runs	-4409
▁28	-4410
▁helpful	-4411
▁documents	-4412
▁Tom	-4413
▁Mary	-4414
itar	-4415
90	-4416
▁Like	-4417
▁brows	-4418
▁suitable	-4419
▁battery	-4420
▁fem	-4421
ooper	-4422
rote	-4423
▁sets	-4424
▁valu	-4425
▁pleas	-4426
DA	-4427
SS	-4428
▁70	-4429
▁datab	-4430
td	-4431
▁Cap	-4432
ovel	-4433
▁minute	-4434
▁flowers	-4435
▁bill	-4436
▁street	-4437
▁units	-4438
▁wat	-4439
▁becoming	-4440
ption	-4441
ugg	-4442
▁records	-4443
▁tow	-4444
mail	-4445
▁laws	-4446
action	-4447
▁husband	-4448
▁Its	-4449
essions	-4450
▁Africa	-4451
▁memory	-4452
6,	-4453
▁dro	-4454
▁square	-4455
▁stone	-4456
fin	-4457
▁England	-4458
iment	-4459
▁Another	-4460
▁talking	-4461
▁maximum	-4462
▁Char	-4463
▁197	-4464
▁sport	-4465
▁optim	-4466
▁trail	-4467
ception	-4468
▁brain	-4469
▁coverage	-4470
▁Microsoft	-4471
obile	-4472
▁stores	-4473
▁movement	-4474
▁distance	-4475
▁central	-4476
reed	-4477
▁focused	-4478
▁manager	-4479
▁older	-4480
▁Bal	-4481
▁Both	-4482
▁brands	-4483
▁concerns	-4484
▁approximately	-4485
▁century	-4486
▁opin	-4487
▁push	-4488
▁Grand	-4489
pping	-4490
▁fol	-4491
▁deals	-4492
bour	-4493
omin	-4494
▁core	-4495
▁opened	-4496
▁shel	-4497
▁trial	-4498
▁Lou	-4499
▁Where	-4500
▁waste	-4501
▁Wel	-4502
LC	-4503
▁accur	-4504
uled	-4505
VE	-4506
▁Android	-4507
▁assistance	-4508
▁automatically	-4509
yn	-4510
▁population	-4511
▁score	-4512
▁continues	-4513
▁Pet	-4514
▁scen	-4515
▁showing	-4516
▁Trump	-4517
▁animals	-4518
ech	-4519
▁Ben	-4520
▁shower	-4521
▁independent	-4522
▁markets	-4523
▁diet	-4524
▁Exper	-4525
▁parties	-4526
▁Cert	-4527
▁committed	-4528
apter	-4529
icians	-4530
unately	-4531
▁couldn	-4532
▁detailed	-4533
▁enhance	-4534
▁workers	-4535
▁allowing	-4536
▁websites	-4537
▁industrial	-4538
▁spect	-4539
illa	-4540
▁Central	-4541
▁learned	-4542
▁Ty	-4543
▁saving	-4544
▁restaurants	-4545
▁kept	-4546
▁visiting	-4547
▁diagn	-4548
friend	-4549
▁exercise	-4550
rees	-4551
▁looked	-4552
-8	-4553
uration	-4554
▁teachers	-4555
▁characters	-4556
▁dial	-4557
▁practical	-4558
www	-4559
▁TO	-4560
▁6.	-4561
▁starts	-4562
▁decisions	-4563
▁processes	-4564
▁controll	-4565
▁closed	-4566
apos	-4567
ribute	-4568
▁operation	-4569
▁Show	-4570
▁department	-4571
gen	-4572
▁ton	-4573
▁Science	-4574
▁info	-4575
▁provider	-4576
▁separate	-4577
▁comprehensive	-4578
▁cart	-4579
ograp	-4580
▁dang	-4581
▁estim	-4582
▁minimum	-4583
▁beg	-4584
▁2018.	-4585
▁District	-4586
▁enjoyed	-4587
▁joint	-4588
yer	-4589
▁recommended	-4590
▁relationships	-4591
▁smaller	-4592
▁Prov	-4593
appy	-4594
▁combined	-4595
▁president	-4596
▁calls	-4597
arrant	-4598
▁actual	-4599
▁inspired	-4600
azine	-4601
▁Their	-4602
▁Centre	-4603
▁leaves	-4604
▁appointment	-4605
▁Mach	-4606
PA	-4607
craft	-4608
▁gone	-4609
▁Note	-4610
▁sea	-4611
estic	-4612
▁agency	-4613
▁decide	-4614
▁neighbor	-4615
▁worry	-4616
outhern	-4617
hab	-4618
ament	-4619
oration	-4620
▁generally	-4621
▁alternative	-4622
▁passed	-4623
iance	-4624
▁south	-4625
▁Mel	-4626
▁ride	-4627
amm	-4628
▁van	-4629
osh	-4630
▁force	-4631
ography	-4632
igned	-4633
45	-4634
uty	-4635
ellig	-4636
▁chocolate	-4637
do	-4638
isl	-4639
▁rat	-4640
▁hospital	-4641
▁connected	-4642
▁Time	-4643
▁busy	-4644
▁prepare	-4645
▁desk	-4646
▁fuel	-4647
▁thick	-4648
▁poor	-4649
ructure	-4650
icks	-4651
▁http	-4652
▁rare	-4653
▁guarantee	-4654
▁satisf	-4655
▁adop	-4656
▁Saf	-4657
▁fear	-4658
ivered	-4659
▁Ve	-4660
aser	-4661
▁flu	-4662
▁supplies	-4663
????	-4664
▁bird	-4665
inding	-4666
▁Miss	-4667
▁Social	-4668
▁dram	-4669
▁limit	-4670
▁economy	-4671
▁managed	-4672
▁edge	-4673
▁doctor	-4674
▁walking	-4675
▁technologies	-4676
▁apart	-4677
▁Family	-4678
▁environmental	-4679
▁injury	-4680
▁brother	-4681
▁factors	-4682
BA	-4683
▁feedback	-4684
▁strategies	-4685
▁sugar	-4686
▁compos	-4687
een	-4688
▁fees	-4689
▁frame	-4690
▁Under	-4691
▁boo	-4692
rd	-4693
▁transform	-4694
mes	-4695
▁chair	-4696
▁config	-4697
fol	-4698
outs	-4699
/20	-4700
▁disapp	-4701
▁favour	-4702
RA	-4703
▁Chic	-4704
▁expensive	-4705
▁Step	-4706
loc	-4707
▁View	-4708
ano	-4709
▁therefore	-4710
▁premium	-4711
▁listen	-4712
▁convenient	-4713
▁2012	-4714
▁drug	-4715
▁Att	-4716
▁pray	-4717
iers	-4718
iest	-4719
vision	-4720
▁Amazon	-4721
▁eating	-4722
▁27	-4723
▁novel	-4724
▁Medical	-4725
▁funding	-4726
well	-4727
▁Bet	-4728
▁himself	-4729
▁entertain	-4730
▁competitive	-4731
▁anti	-4732
▁coup	-4733
▁terr	-4734
reek	-4735
rics	-4736
▁ven	-4737
umber	-4738
▁Before	-4739
▁sounds	-4740
cean	-4741
▁figure	-4742
▁north	-4743
▁sizes	-4744
▁emergency	-4745
▁corner	-4746
▁happens	-4747
▁brown	-4748
▁trees	-4749
▁Fort	-4750
▁fruit	-4751
win	-4752
▁evidence	-4753
22	-4754
▁tend	-4755
pan	-4756
▁profile	-4757
▁leadership	-4758
osen	-4759
▁reality	-4760
▁daughter	-4761
▁district	-4762
35	-4763
▁applied	-4764
CA	-4765
going	-4766
▁Plus	-4767
life	-4768
ship	-4769
▁faith	-4770
▁direction	-4771
▁filled	-4772
▁sem	-4773
▁catch	-4774
▁dynam	-4775
bed	-4776
▁joined	-4777
▁Que	-4778
▁announce	-4779
IG	-4780
▁Hist	-4781
▁spending	-4782
▁List	-4783
▁wrote	-4784
omet	-4785
▁leaving	-4786
▁AS	-4787
▁Mad	-4788
▁rub	-4789
eless	-4790
▁accident	-4791
▁continued	-4792
▁posts	-4793
▁butter	-4794
uries	-4795
liance	-4796
▁seconds	-4797
night	-4798
▁compl	-4799
▁attor	-4800
inct	-4801
prise	-4802
log	-4803
▁cities	-4804
▁Hill	-4805
▁lights	-4806
▁Sand	-4807
▁valid	-4808
▁Card	-4809
▁ship	-4810
▁promote	-4811
▁winning	-4812
▁anywhere	-4813
▁Alex	-4814
▁grant	-4815
▁Academ	-4816
▁spl	-4817
▁youth	-4818
▁Republic	-4819
▁mist	-4820
▁iPhone	-4821
▁updates	-4822
alls	-4823
▁Twitter	-4824
DF	-4825
▁survey	-4826
▁properly	-4827
nel	-4828
▁Stand	-4829
▁bought	-4830
▁lunch	-4831
▁processing	-4832
unction	-4833
▁2,	-4834
▁jump	-4835
ternal	-4836
▁sources	-4837
▁Long	-4838
▁purs	-4839
erences	-4840
▁Commission	-4841
antic	-4842
▁iron	-4843
iated	-4844
▁replacement	-4845
▁500	-4846
orthern	-4847
▁military	-4848
▁Lim	-4849
▁rap	-4850
▁Matt	-4851
gn	-4852
IA	-4853
reens	-4854
▁bowl	-4855
eries	-4856
▁delivered	-4857
▁seat	-4858
iability	-4859
alend	-4860
▁Christian	-4861
.)	-4862
▁Const	-4863
▁Carol	-4864
▁Vir	-4865
▁becomes	-4866
▁salt	-4867
▁Hand	-4868
▁raised	-4869
icial	-4870
▁components	-4871
onus	-4872
▁resolution	-4873
▁Ltd	-4874
▁Lead	-4875
▁mer	-4876
▁shap	-4877
estyle	-4878
▁Women	-4879
▁federal	-4880
▁caused	-4881
▁teacher	-4882
▁Technology	-4883
▁tail	-4884
▁launched	-4885
CH	-4886
▁girls	-4887
▁perhaps	-4888
▁Gal	-4889
▁Follow	-4890
ander	-4891
text	-4892
▁audio	-4893
▁choices	-4894
▁exchange	-4895
▁manufacturing	-4896
▁Sol	-4897
ivate	-4898
▁ring	-4899
▁breakfast	-4900
▁Master	-4901
▁covers	-4902
▁Hotel	-4903
▁educational	-4904
44	-4905
▁Town	-4906
▁Mexic	-4907
▁reput	-4908
▁CD	-4909
▁guest	-4910
▁chemical	-4911
65	-4912
issions	-4913
▁instru	-4914
▁academic	-4915
▁Rad	-4916
▁Clean	-4917
atures	-4918
▁internal	-4919
▁pm	-4920
▁nav	-4921
▁mort	-4922
water	-4923
orough	-4924
▁songs	-4925
▁Lo	-4926
eria	-4927
▁Dig	-4928
▁manual	-4929
ae	-4930
ya	-4931
▁Head	-4932
▁Information	-4933
▁commitment	-4934
▁Hum	-4935
▁Pan	-4936
opped	-4937
▁7.	-4938
▁performed	-4939
ternoon	-4940
met	-4941
▁Bill	-4942
▁cris	-4943
▁aspects	-4944
iences	-4945
▁Enjoy	-4946
▁topic	-4947
▁(2	-4948
▁Award	-4949
itz	-4950
iled	-4951
▁cooking	-4952
BS	-4953
▁Learn	-4954
▁upload	-4955
gal	-4956
▁tea	-4957
▁auto	-4958
▁Thom	-4959
▁tun	-4960
▁ID	-4961
▁2019.	-4962
▁Flo	-4963
▁Commit	-4964
▁lose	-4965
▁meal	-4966
ocr	-4967
icies	-4968
▁quot	-4969
-7	-4970
▁ban	-4971
▁refer	-4972
▁confidence	-4973
▁painting	-4974
▁AND	-4975
▁meant	-4976
pected	-4977
▁honest	-4978
▁supported	-4979
▁slightly	-4980
▁decl	-4981
▁importance	-4982
▁society	-4983
▁hire	-4984
▁claims	-4985
▁wal	-4986
▁knows	-4987
▁eleg	-4988
▁Using	-4989
▁Only	-4990
▁absolutely	-4991
▁YOU	-4992
point	-4993
▁35	-4994
▁database	-4995
▁highlight	-4996
▁depending	-4997
▁Society	-4998
▁scr	-4999
▁participants	-5000
▁Full	-5001
▁scale	-5002
▁Equ	-5003
▁species	-5004
▁neck	-5005
ola	-5006
▁Data	-5007
▁articles	-5008
CC	-5009
▁sym	-5010
▁UN	-5011
▁Tour	-5012
▁Di	-5013
▁NY	-5014
intage	-5015
▁coast	-5016
▁scene	-5017
▁Does	-5018
ishing	-5019
▁secret	-5020
ownt	-5021
▁France	-5022
▁Security	-5023
▁approved	-5024
▁presence	-5025
cohol	-5026
▁remains	-5027
▁registered	-5028
ef	-5029
▁leads	-5030
rain	-5031
▁guess	-5032
▁adults	-5033
▁generation	-5034
▁Qual	-5035
▁Scott	-5036
▁chart	-5037
ups	-5038
▁Div	-5039
▁happened	-5040
▁watching	-5041
▁Cy	-5042
▁Arts	-5043
lor	-5044
▁plug	-5045
▁Museum	-5046
▁rid	-5047
▁housing	-5048
known	-5049
▁Mass	-5050
OD	-5051
▁lighting	-5052
▁IP	-5053
▁notes	-5054
▁sch	-5055
▁repe	-5056
▁surrounding	-5057
▁putting	-5058
▁agreement	-5059
ums	-5060
asks	-5061
▁whatever	-5062
atin	-5063
hent	-5064
▁ang	-5065
▁Beaut	-5066
edy	-5067
la	-5068
▁guys	-5069
IR	-5070
▁NOT	-5071
▁flight	-5072
isco	-5073
▁library	-5074
):	-5075
▁beat	-5076
▁leather	-5077
ita	-5078
▁uns	-5079
▁Spring	-5080
▁journal	-5081
▁efficiency	-5082
▁har	-5083
▁$2	-5084
cles	-5085
rab	-5086
ruit	-5087
▁bike	-5088
▁Press	-5089
ker	-5090
▁Organ	-5091
▁concent	-5092
▁resource	-5093
▁thoughts	-5094
▁presentation	-5095
▁dance	-5096
▁psych	-5097
▁Disc	-5098
▁prote	-5099
men	-5100
▁buildings	-5101
▁residential	-5102
▁League	-5103
▁ju	-5104
▁epis	-5105
▁perfectly	-5106
▁196	-5107
▁princip	-5108
▁calling	-5109
▁illustr	-5110
▁toward	-5111
▁cutting	-5112
▁typically	-5113
rs	-5114
amic	-5115
igious	-5116
▁gallery	-5117
▁settings	-5118
▁upcoming	-5119
▁dish	-5120
vere	-5121
▁solar	-5122
▁valuable	-5123
▁obvious	-5124
net	-5125
▁OF	-5126
▁Fund	-5127
Wh	-5128
lands	-5129
▁citiz	-5130
▁wheel	-5131
▁Cre	-5132
▁fell	-5133
▁CA	-5134
▁Dou	-5135
▁labor	-5136
33	-5137
OP	-5138
▁cultural	-5139
itness	-5140
▁Addition	-5141
▁reference	-5142
oga	-5143
▁appeal	-5144
▁football	-5145
aks	-5146
▁crow	-5147
col	-5148
rael	-5149
▁Tor	-5150
rag	-5151
chest	-5152
vention	-5153
▁Ill	-5154
▁mental	-5155
ini	-5156
▁advertising	-5157
mosp	-5158
▁Review	-5159
▁rental	-5160
OC	-5161
igan	-5162
▁Soft	-5163
▁familiar	-5164
▁amb	-5165
▁diam	-5166
▁enable	-5167
add	-5168
ifying	-5169
▁Invest	-5170
▁afternoon	-5171
bl	-5172
▁signed	-5173
▁Old	-5174
ensions	-5175
▁luxury	-5176
othes	-5177
▁disp	-5178
▁drivers	-5179
▁mentioned	-5180
cher	-5181
▁brief	-5182
▁trained	-5183
ician	-5184
▁profit	-5185
▁seeking	-5186
▁discussion	-5187
▁earth	-5188
▁remote	-5189
▁=	-5190
▁Los	-5191
▁volume	-5192
▁Welcome	-5193
▁previously	-5194
▁Sen	-5195
▁shut	-5196
▁occasion	-5197
▁quant	-5198
▁compar	-5199
▁birthday	-5200
mbol	-5201
▁Prot	-5202
▁fields	-5203
alian	-5204
▁foreign	-5205
▁registration	-5206
▁exclusive	-5207
▁Jour	-5208
▁majority	-5209
▁specifically	-5210
van	-5211
▁cells	-5212
▁sessions	-5213
ilit	-5214
▁consumers	-5215
▁nurs	-5216
▁sheet	-5217
▁policies	-5218
▁raise	-5219
atre	-5220
lets	-5221
▁Hope	-5222
▁Media	-5223
▁spaces	-5224
▁missing	-5225
▁monthly	-5226
▁Ext	-5227
▁Mont	-5228
oosing	-5229
▁ir	-5230
▁engineering	-5231
▁8.	-5232
▁surf	-5233
▁vary	-5234
▁providers	-5235
▁supporting	-5236
▁mini	-5237
▁Looking	-5238
▁measures	-5239
▁participate	-5240
▁Manager	-5241
hi	-5242
▁bask	-5243
esterday	-5244
▁sauce	-5245
▁styles	-5246
TA	-5247
▁Jew	-5248
▁Global	-5249
▁willing	-5250
▁featuring	-5251
▁functions	-5252
▁Cam	-5253
▁showed	-5254
ray	-5255
rome	-5256
▁licens	-5257
▁accompl	-5258
▁died	-5259
▁Place	-5260
▁Union	-5261
▁Network	-5262
ius	-5263
▁Atl	-5264
▁warrant	-5265
▁appearance	-5266
▁NE	-5267
▁radio	-5268
▁teeth	-5269
▁golf	-5270
▁stunning	-5271
▁Squ	-5272
▁Pack	-5273
▁Table	-5274
ainless	-5275
osis	-5276
ulous	-5277
▁deck	-5278
▁surgery	-5279
▁45	-5280
This	-5281
▁ment	-5282
hetic	-5283
▁faster	-5284
UT	-5285
▁chain	-5286
▁indic	-5287
▁inspiration	-5288
▁Pub	-5289
▁ticket	-5290
▁employee	-5291
▁improved	-5292
▁Cat	-5293
▁concrete	-5294
▁Australian	-5295
urban	-5296
▁reached	-5297
ricult	-5298
▁featured	-5299
▁eth	-5300
▁RE	-5301
▁fle	-5302
▁removed	-5303
95	-5304
▁Mer	-5305
▁2011	-5306
▁neighborhood	-5307
▁boat	-5308
▁Connect	-5309
ixture	-5310
▁kid	-5311
azz	-5312
▁Chicago	-5313
▁Bas	-5314
▁Brown	-5315
▁Watch	-5316
▁quiet	-5317
▁contemporary	-5318
▁Aud	-5319
▁Tur	-5320
▁pin	-5321
▁error	-5322
orgeous	-5323
▁tables	-5324
▁Festival	-5325
▁Room	-5326
▁Small	-5327
▁silver	-5328
ario	-5329
▁appe	-5330
▁thus	-5331
ords	-5332
▁accounts	-5333
▁emp	-5334
▁kick	-5335
lying	-5336
rition	-5337
▁2017.	-5338
▁gather	-5339
burg	-5340
cious	-5341
ificate	-5342
▁elimin	-5343
32	-5344
▁ourselves	-5345
▁instructions	-5346
olars	-5347
▁teach	-5348
▁tight	-5349
ifications	-5350
iors	-5351
▁Bed	-5352
▁Guys	-5353
▁consid	-5354
▁studio	-5355
▁Lab	-5356
▁Access	-5357
osing	-5358
▁construct	-5359
▁PM	-5360
onds	-5361
▁animal	-5362
▁CEO	-5363
mar	-5364
etime	-5365
▁hearing	-5366
▁Those	-5367
▁Committee	-5368
▁poly	-5369
kin	-5370
▁otherwise	-5371
no	-5372
▁sides	-5373
▁introduced	-5374
▁apps	-5375
▁trend	-5376
ki	-5377
prene	-5378
▁dura	-5379
▁houses	-5380
hus	-5381
▁label	-5382
ait	-5383
▁glad	-5384
▁dogs	-5385
▁tut	-5386
▁campus	-5387
▁obtain	-5388
▁bringing	-5389
vell	-5390
▁ath	-5391
▁truth	-5392
▁Person	-5393
▁atmosp	-5394
▁filter	-5395
▁throw	-5396
▁(1	-5397
flow	-5398
▁behavior	-5399
▁hundreds	-5400
▁topics	-5401
zen	-5402
▁rot	-5403
▁output	-5404
fortunately	-5405
NA	-5406
arp	-5407
iner	-5408
▁signs	-5409
▁Control	-5410
▁32	-5411
▁Den	-5412
▁Very	-5413
▁agent	-5414
▁cheese	-5415
▁purchased	-5416
IF	-5417
▁designer	-5418
▁infrast	-5419
▁Vict	-5420
▁regularly	-5421
uits	-5422
alog	-5423
▁Israel	-5424
iat	-5425
▁Win	-5426
reprene	-5427
▁sample	-5428
▁(20	-5429
▁Test	-5430
▁rapid	-5431
▁wouldn	-5432
▁orders	-5433
▁responsibility	-5434
▁appreciate	-5435
king	-5436
▁Series	-5437
▁Hi	-5438
▁goods	-5439
▁delight	-5440
▁apartment	-5441
▁effectively	-5442
▁advis	-5443
▁organic	-5444
▁Ber	-5445
▁worldwide	-5446
otton	-5447
▁chosen	-5448
▁mostly	-5449
▁certified	-5450
MA	-5451
▁Ideas	-5452
how	-5453
▁boost	-5454
▁civil	-5455
▁appears	-5456
▁Bath	-5457
▁accessories	-5458
▁Franc	-5459
▁qualified	-5460
▁Kitchen	-5461
elines	-5462
▁belie	-5463
▁partnership	-5464
▁chicken	-5465
▁climate	-5466
▁consumer	-5467
▁cake	-5468
▁element	-5469
▁Government	-5470
▁cere	-5471
▁shoes	-5472
▁joy	-5473
▁mine	-5474
▁machines	-5475
verse	-5476
▁incredible	-5477
▁accurate	-5478
bre	-5479
▁actions	-5480
▁researc	-5481
cont	-5482
made	-5483
▁About	-5484
▁colle	-5485
▁greatest	-5486
▁recovery	-5487
▁arm	-5488
▁Smith	-5489
REE	-5490
▁anc	-5491
▁depos	-5492
▁simpl	-5493
▁stret	-5494
road	-5495
▁coach	-5496
erts	-5497
▁ON	-5498
▁Main	-5499
▁detect	-5500
▁symbol	-5501
▁Happy	-5502
▁foods	-5503
▁manner	-5504
rier	-5505
▁Bur	-5506
▁Wal	-5507
gment	-5508
▁defe	-5509
▁trading	-5510
▁29	-5511
▁Tre	-5512
▁electronic	-5513
▁hosting	-5514
idden	-5515
▁quote	-5516
eline	-5517
▁milk	-5518
▁pock	-5519
▁restrict	-5520
▁examples	-5521
iquid	-5522
▁totally	-5523
▁jew	-5524
▁Oper	-5525
▁Rest	-5526
alendar	-5527
▁cute	-5528
▁MP	-5529
isher	-5530
roy	-5531
▁ben	-5532
▁license	-5533
▁Western	-5534
▁dim	-5535
▁Fair	-5536
▁Kore	-5537
▁gun	-5538
▁ended	-5539
▁landscape	-5540
▁monit	-5541
▁German	-5542
▁Germany	-5543
▁du	-5544
▁Wil	-5545
▁Virgin	-5546
▁legisl	-5547
aration	-5548
gage	-5549
▁Admin	-5550
▁predict	-5551
▁returned	-5552
▁programme	-5553
▁Gar	-5554
▁Nov	-5555
inder	-5556
▁entertainment	-5557
▁Nor	-5558
▁Farm	-5559
weight	-5560
▁stri	-5561
▁scheduled	-5562
▁successfully	-5563
ENT	-5564
▁Louis	-5565
▁yellow	-5566
▁Students	-5567
pass	-5568
▁300	-5569
▁grade	-5570
▁meat	-5571
▁savings	-5572
▁!	-5573
▁Buy	-5574
kes	-5575
while	-5576
▁impl	-5577
▁motiv	-5578
▁Log	-5579
▁hun	-5580
▁Trust	-5581
olutions	-5582
▁Tim	-5583
▁Cond	-5584
▁sympt	-5585
▁feels	-5586
orable	-5587
berg	-5588
▁therapy	-5589
ibilities	-5590
▁SP	-5591
▁proceed	-5592
ato	-5593
▁Men	-5594
▁photography	-5595
▁crew	-5596
▁dental	-5597
▁Children	-5598
▁searching	-5599
▁ec	-5600
▁clearly	-5601
▁esc	-5602
▁serves	-5603
▁Did	-5604
▁input	-5605
▁submit	-5606
▁innovation	-5607
▁integrated	-5608
▁icon	-5609
▁fixed	-5610
▁MS	-5611
▁Ham	-5612
▁chat	-5613
▁infect	-5614
▁outstanding	-5615
▁owned	-5616
▁Japanese	-5617
▁hardware	-5618
▁officials	-5619
▁lifestyle	-5620
▁satisfact	-5621
▁ris	-5622
▁candidates	-5623
▁plays	-5624
athe	-5625
▁vit	-5626
orter	-5627
umes	-5628
▁Shop	-5629
roc	-5630
▁infrastructure	-5631
▁moist	-5632
▁walls	-5633
aked	-5634
ring	-5635
nergy	-5636
poses	-5637
▁improvement	-5638
west	-5639
▁oven	-5640
▁gear	-5641
▁occup	-5642
▁thread	-5643
▁wearing	-5644
▁asking	-5645
▁Cup	-5646
ighter	-5647
▁celebrate	-5648
▁Ul	-5649
asts	-5650
▁healthcare	-5651
▁reb	-5652
igr	-5653
eper	-5654
▁vote	-5655
▁Canad	-5656
▁Frank	-5657
▁George	-5658
▁grown	-5659
ias	-5660
▁rise	-5661
▁Police	-5662
oup	-5663
liers	-5664
▁bonus	-5665
▁Academy	-5666
24	-5667
▁Cost	-5668
▁Sign	-5669
▁Italian	-5670
with	-5671
▁rear	-5672
▁awareness	-5673
▁poll	-5674
▁paying	-5675
odies	-5676
riage	-5677
▁equipped	-5678
race	-5679
inations	-5680
▁privacy	-5681
▁fulf	-5682
▁collaboration	-5683
yc	-5684
ersey	-5685
▁mel	-5686
nament	-5687
acks	-5688
’.	-5689
anged	-5690
▁kinds	-5691
▁Conference	-5692
da	-5693
▁desire	-5694
▁negative	-5695
▁elig	-5696
quality	-5697
▁800	-5698
▁row	-5699
▁household	-5700
▁aid	-5701
▁Royal	-5702
▁fourth	-5703
▁invent	-5704
▁answers	-5705
▁decades	-5706
▁tab	-5707
▁victim	-5708
▁Asia	-5709
▁essay	-5710
list	-5711
▁everyday	-5712
▁CH	-5713
▁informed	-5714
▁expectations	-5715
asp	-5716
▁beer	-5717
▁charges	-5718
▁accessible	-5719
▁sitting	-5720
▁despite	-5721
▁procedures	-5722
▁Which	-5723
▁keeps	-5724
▁garage	-5725
▁expos	-5726
SA	-5727
▁holds	-5728
▁depart	-5729
▁diverse	-5730
▁described	-5731
▁interests	-5732
▁Having	-5733
▁printed	-5734
▁Walk	-5735
▁kit	-5736
▁upp	-5737
▁favourite	-5738
lines	-5739
TC	-5740
▁31	-5741
▁Join	-5742
▁thorough	-5743
▁administr	-5744
▁Ol	-5745
▁pure	-5746
▁purposes	-5747
han	-5748
▁(19	-5749
▁mode	-5750
▁stars	-5751
▁Search	-5752
ffect	-5753
otic	-5754
▁supports	-5755
UN	-5756
▁Max	-5757
▁agencies	-5758
▁impressive	-5759
▁Ok	-5760
▁perman	-5761
▁pleased	-5762
▁village	-5763
▁electrical	-5764
▁dates	-5765
▁dating	-5766
▁Lord	-5767
▁university	-5768
▁Prem	-5769
▁creation	-5770
▁photograp	-5771
▁discovered	-5772
▁Try	-5773
▁Insurance	-5774
▁Peter	-5775
▁holding	-5776
dered	-5777
▁Er	-5778
▁burn	-5779
▁logo	-5780
iminal	-5781
▁Applic	-5782
ags	-5783
ulty	-5784
▁bread	-5785
▁Way	-5786
▁ped	-5787
▁plate	-5788
▁winner	-5789
▁Def	-5790
▁degrees	-5791
ella	-5792
▁Ire	-5793
▁univers	-5794
▁destination	-5795
▁Support	-5796
tered	-5797
▁lit	-5798
rowse	-5799
▁ages	-5800
▁closely	-5801
▁readers	-5802
▁Ver	-5803
▁jack	-5804
▁intellig	-5805
hand	-5806
▁rail	-5807
PR	-5808
▁ign	-5809
▁height	-5810
▁voc	-5811
abled	-5812
▁Maybe	-5813
▁clinical	-5814
▁belong	-5815
▁vacation	-5816
▁foundation	-5817
▁historical	-5818
sembly	-5819
▁Mult	-5820
▁context	-5821
yard	-5822
▁inches	-5823
▁flexible	-5824
▁ap	-5825
orry	-5826
▁pod	-5827
anish	-5828
▁Vide	-5829
▁tough	-5830
▁shares	-5831
▁reduced	-5832
▁template	-5833
▁Creat	-5834
▁Party	-5835
▁gifts	-5836
▁tasks	-5837
▁African	-5838
▁messages	-5839
▁Lu	-5840
▁explain	-5841
▁fitness	-5842
ospit	-5843
▁meetings	-5844
/4	-5845
ora	-5846
itage	-5847
▁integ	-5848
▁revenue	-5849
actions	-5850
ailable	-5851
▁Print	-5852
▁patterns	-5853
▁investors	-5854
▁Pin	-5855
▁command	-5856
istan	-5857
tending	-5858
▁constantly	-5859
▁nearby	-5860
▁alcohol	-5861
36	-5862
olve	-5863
▁tests	-5864
▁begins	-5865
▁administration	-5866
phas	-5867
▁coordin	-5868
▁depend	-5869
▁trends	-5870
▁influence	-5871
▁Mid	-5872
▁Coast	-5873
▁cable	-5874
▁route	-5875
▁edition	-5876
▁wid	-5877
▁Cook	-5878
ushing	-5879
▁Land	-5880
▁rom	-5881
▁Cross	-5882
▁instance	-5883
You	-5884
▁remaining	-5885
▁complic	-5886
▁Game	-5887
▁nine	-5888
▁Robert	-5889
aud	-5890
▁authent	-5891
anda	-5892
▁arrest	-5893
▁fo	-5894
▁10.	-5895
▁decre	-5896
CE	-5897
▁bags	-5898
▁carpet	-5899
▁ease	-5900
pes	-5901
▁carefully	-5902
ilst	-5903
related	-5904
▁operate	-5905
▁Minister	-5906
ht	-5907
olic	-5908
▁die	-5909
ushed	-5910
▁Sometimes	-5911
▁tom	-5912
▁tur	-5913
can	-5914
▁Angeles	-5915
▁minor	-5916
▁renew	-5917
▁Key	-5918
▁facing	-5919
▁musical	-5920
▁distribution	-5921
▁End	-5922
▁Ce	-5923
vis	-5924
ache	-5925
▁prompt	-5926
▁oppos	-5927
▁sustainable	-5928
dem	-5929
spe	-5930
▁LED	-5931
▁Opt	-5932
luding	-5933
▁Santa	-5934
▁challenging	-5935
▁manufacturers	-5936
gl	-5937
▁cop	-5938
▁Charl	-5939
▁unless	-5940
▁choosing	-5941
▁Live	-5942
▁Proper	-5943
▁3,	-5944
away	-5945
cover	-5946
▁entr	-5947
▁crowd	-5948
▁planned	-5949
▁gorgeous	-5950
▁Jul	-5951
▁arts	-5952
case	-5953
▁airport	-5954
▁Gen	-5955
▁Fun	-5956
▁engagement	-5957
▁spons	-5958
▁procedure	-5959
▁mouth	-5960
owntown	-5961
▁bottle	-5962
▁eventually	-5963
▁Pass	-5964
▁tagged	-5965
▁sister	-5966
date	-5967
▁affected	-5968
100	-5969
▁MA	-5970
▁conversation	-5971
▁mal	-5972
▁Haw	-5973
▁Come	-5974
▁Digital	-5975
▁debt	-5976
▁atmosphere	-5977
▁assets	-5978
▁AT	-5979
▁recorded	-5980
▁Van	-5981
iveness	-5982
▁creates	-5983
fa	-5984
▁der	-5985
▁shops	-5986
▁Author	-5987
▁dollars	-5988
▁forest	-5989
▁receiving	-5990
front	-5991
▁sequ	-5992
▁realize	-5993
▁possibly	-5994
▁offices	-5995
IV	-5996
SE	-5997
stone	-5998
ena	-5999
▁Earth	-6000
▁symptoms	-6001
▁perspective	-6002
▁AR	-6003
▁Wild	-6004
▁domain	-6005
GB	-6006
tr	-6007
▁Ep	-6008
▁twice	-6009
▁Sup	-6010
▁FREE	-6011
▁basket	-6012
▁regional	-6013
▁recognized	-6014
LA	-6015
▁Bud	-6016
profit	-6017
▁opinion	-6018
▁passeng	-6019
▁Vill	-6020
▁causes	-6021
▁circum	-6022
▁Need	-6023
▁forg	-6024
▁broken	-6025
yan	-6026
lete	-6027
rupt	-6028
▁vital	-6029
▁Garden	-6030
▁stream	-6031
▁Instead	-6032
▁knowing	-6033
▁married	-6034
▁Hospital	-6035
▁interface	-6036
▁Mic	-6037
▁enthus	-6038
▁fro	-6039
▁bigger	-6040
▁movies	-6041
▁workshop	-6042
rency	-6043
▁Little	-6044
lay	-6045
arsh	-6046
▁adapt	-6047
▁crusher	-6048
▁considering	-6049
▁Price	-6050
▁Store	-6051
▁Victor	-6052
▁editor	-6053
▁mountain	-6054
▁lived	-6055
ua	-6056
▁phil	-6057
▁regul	-6058
▁intended	-6059
▁inch	-6060
▁executive	-6061
▁native	-6062
▁Finally	-6063
▁pharm	-6064
▁©	-6065
▁bound	-6066
▁cooper	-6067
▁employment	-6068
▁Energy	-6069
▁assessment	-6070
▁clothes	-6071
▁extended	-6072
▁adventure	-6073
▁hyd	-6074
▁channel	-6075
rid	-6076
▁engage	-6077
▁arrived	-6078
▁·	-6079
▁Nav	-6080
▁Tit	-6081
holder	-6082
▁Commun	-6083
▁Second	-6084
▁password	-6085
achel	-6086
▁female	-6087
▁Paris	-6088
▁industries	-6089
▁specialist	-6090
ste	-6091
▁excess	-6092
▁graduate	-6093
▁charm	-6094
▁Box	-6095
▁Further	-6096
-9	-6097
writ	-6098
anges	-6099
▁writer	-6100
▁significantly	-6101
▁Middle	-6102
▁battle	-6103
▁Journal	-6104
▁payments	-6105
▁treatments	-6106
HS	-6107
▁Ireland	-6108
▁distinct	-6109
▁protected	-6110
▁situations	-6111
▁rule	-6112
▁accepted	-6113
▁clothing	-6114
▁upper	-6115
▁Econom	-6116
▁Library	-6117
▁guy	-6118
▁veter	-6119
▁commission	-6120
mond	-6121
folio	-6122
▁classroom	-6123
▁Mov	-6124
▁Mobile	-6125
5%	-6126
▁elegant	-6127
▁organized	-6128
resp	-6129
▁layer	-6130
▁Dev	-6131
▁cos	-6132
▁emphas	-6133
poration	-6134
▁carried	-6135
▁external	-6136
▁Account	-6137
▁transportation	-6138
▁powder	-6139
▁routine	-6140
▁Congress	-6141
▁Jose	-6142
▁skill	-6143
▁facilit	-6144
▁mold	-6145
▁root	-6146
▁Works	-6147
▁Systems	-6148
▁browser	-6149
▁yesterday	-6150
▁Made	-6151
▁treated	-6152
▁standing	-6153
▁Scot	-6154
▁Assist	-6155
▁Mexico	-6156
▁reputation	-6157
merce	-6158
otten	-6159
▁Russian	-6160
▁frequently	-6161
▁institutions	-6162
▁Help	-6163
▁ends	-6164
▁issued	-6165
▁booking	-6166
▁..	-6167
▁ur	-6168
▁alle	-6169
▁awards	-6170
▁earned	-6171
▁stands	-6172
▁rough	-6173
▁codes	-6174
gend	-6175
▁Champions	-6176
▁satisfaction	-6177
▁kill	-6178
▁emotional	-6179
obby	-6180
▁dynamic	-6181
▁guidance	-6182
▁citizens	-6183
▁festival	-6184
ye	-6185
othe	-6186
▁unc	-6187
▁wet	-6188
▁2000	-6189
▁usual	-6190
▁Travel	-6191
▁swimming	-6192
▁Instagram	-6193
▁arrive	-6194
bur	-6195
▁tub	-6196
erves	-6197
amsung	-6198
▁filed	-6199
▁guitar	-6200
comes	-6201
▁loves	-6202
▁incl	-6203
▁soul	-6204
▁conducted	-6205
igration	-6206
▁appeared	-6207
equ	-6208
ardens	-6209
hire	-6210
▁Low	-6211
▁negot	-6212
▁monitoring	-6213
uing	-6214
▁vend	-6215
▁Smart	-6216
VD	-6217
afe	-6218
▁Bi	-6219
▁lamp	-6220
▁charged	-6221
▁wash	-6222
▁horse	-6223
▁Know	-6224
▁doubt	-6225
▁virtual	-6226
▁Link	-6227
▁Jim	-6228
▁Week	-6229
▁domestic	-6230
which	-6231
▁Italy	-6232
▁viewed	-6233
▁Jud	-6234
▁proposed	-6235
▁positions	-6236
▁Bow	-6237
▁Mike	-6238
▁entreprene	-6239
55	-6240
SP	-6241
▁Penn	-6242
▁pink	-6243
▁yes	-6244
▁PA	-6245
▁membership	-6246
ala	-6247
▁PDF	-6248
▁obl	-6249
▁Young	-6250
▁finest	-6251
▁talent	-6252
ta	-6253
▁soil	-6254
▁Should	-6255
▁Auto	-6256
▁tested	-6257
▁identity	-6258
va	-6259
illiant	-6260
oral	-6261
▁Hard	-6262
▁Carolina	-6263
▁medicine	-6264
berry	-6265
▁Chris	-6266
▁cycle	-6267
▁conver	-6268
▁Spanish	-6269
▁injuries	-6270
rim	-6271
quir	-6272
Sh	-6273
▁attended	-6274
▁scientific	-6275
weet	-6276
▁synt	-6277
▁Chair	-6278
▁river	-6279
xy	-6280
▁Execut	-6281
▁films	-6282
▁mixed	-6283
▁Select	-6284
▁missed	-6285
▁improving	-6286
:0	-6287
▁Point	-6288
▁Machine	-6289
▁protein	-6290
▁returns	-6291
proof	-6292
▁hotels	-6293
▁Current	-6294
▁Training	-6295
▁vir	-6296
rence	-6297
▁tech	-6298
▁surprise	-6299
▁identified	-6300
iece	-6301
▁fif	-6302
▁Code	-6303
▁lapt	-6304
▁retire	-6305
▁consultation	-6306
▁agents	-6307
▁managing	-6308
▁Decor	-6309
▁superior	-6310
▁Sn	-6311
▁founded	-6312
▁printing	-6313
▁strategic	-6314
▁television	-6315
-10	-6316
▁enables	-6317
▁blend	-6318
▁speaking	-6319
uine	-6320
▁soph	-6321
▁awarded	-6322
▁mixture	-6323
28	-6324
irty	-6325
▁tap	-6326
▁involve	-6327
acious	-6328
▁matters	-6329
▁2016.	-6330
▁Georg	-6331
▁turns	-6332
▁Quality	-6333
elly	-6334
▁boxes	-6335
▁William	-6336
▁compare	-6337
34	-6338
66	-6339
▁Lin	-6340
▁acid	-6341
▁platforms	-6342
▁implementation	-6343
ava	-6344
▁freed	-6345
▁proven	-6346
▁performing	-6347
▁2018,	-6348
▁Ohio	-6349
▁Comple	-6350
▁ongoing	-6351
esh	-6352
▁SC	-6353
▁Cast	-6354
▁Ma	-6355
iano	-6356
▁tall	-6357
▁failed	-6358
▁moments	-6359
▁Marketing	-6360
ras	-6361
▁Sar	-6362
▁grass	-6363
▁athlet	-6364
▁default	-6365
▁availability	-6366
umni	-6367
▁invited	-6368
▁monitor	-6369
utch	-6370
▁depth	-6371
▁2009	-6372
▁adds	-6373
▁dent	-6374
▁SU	-6375
▁Sports	-6376
▁museum	-6377
▁Canadian	-6378
stal	-6379
▁Area	-6380
▁pregn	-6381
▁carbon	-6382
▁recipes	-6383
uction	-6384
ban	-6385
▁rand	-6386
▁transition	-6387
▁researchers	-6388
edia	-6389
▁Steel	-6390
▁urban	-6391
▁determined	-6392
but	-6393
▁ear	-6394
arks	-6395
anger	-6396
▁organis	-6397
▁Cas	-6398
▁boys	-6399
lights	-6400
▁investigation	-6401
▁Sky	-6402
▁argu	-6403
orders	-6404
▁bless	-6405
▁mining	-6406
▁Thomas	-6407
▁circumst	-6408
▁Professional	-6409
pection	-6410
▁deploy	-6411
▁flavor	-6412
▁Building	-6413
▁Virginia	-6414
lymp	-6415
site	-6416
arian	-6417
▁closer	-6418
▁typical	-6419
▁Image	-6420
arrow	-6421
acific	-6422
▁Human	-6423
▁IC	-6424
▁alumin	-6425
▁attached	-6426
▁fort	-6427
▁Visit	-6428
▁Living	-6429
▁grab	-6430
▁rein	-6431
fficient	-6432
▁ensuring	-6433
friendly	-6434
▁attorney	-6435
ennis	-6436
▁factor	-6437
▁removal	-6438
▁vibr	-6439
▁defense	-6440
▁ast	-6441
▁Meet	-6442
▁flash	-6443
▁affil	-6444
▁severe	-6445
▁colours	-6446
cue	-6447
▁km	-6448
▁happening	-6449
▁vs	-6450
oston	-6451
▁hall	-6452
▁Summer	-6453
▁drawing	-6454
▁massive	-6455
▁Boy	-6456
▁pil	-6457
▁9.	-6458
▁Secret	-6459
▁failure	-6460
▁fishing	-6461
▁Dub	-6462
▁smok	-6463
▁pricing	-6464
▁EU	-6465
▁Id	-6466
neys	-6467
▁Ball	-6468
▁bedrooms	-6469
▁versions	-6470
▁description	-6471
▁Zeal	-6472
▁confident	-6473
▁Pri	-6474
▁debut	-6475
▁loans	-6476
▁picked	-6477
▁revealed	-6478
▁Engineering	-6479
▁SE	-6480
▁Orig	-6481
▁Perform	-6482
za	-6483
ucle	-6484
astern	-6485
▁caught	-6486
iams	-6487
print	-6488
▁spok	-6489
▁west	-6490
▁buyers	-6491
▁diagram	-6492
▁repairs	-6493
▁smile	-6494
▁Though	-6495
▁wealth	-6496
cket	-6497
▁Cra	-6498
▁Page	-6499
▁unex	-6500
▁listing	-6501
▁developers	-6502
▁exhibition	-6503
ns	-6504
▁mirr	-6505
▁resume	-6506
▁reward	-6507
oh	-6508
▁Want	-6509
▁48	-6510
▁bond	-6511
38	-6512
▁CR	-6513
yers	-6514
▁prop	-6515
▁expans	-6516
▁handling	-6517
▁resistance	-6518
▁McC	-6519
ether	-6520
plates	-6521
▁extract	-6522
▁lessons	-6523
▁networks	-6524
isters	-6525
▁conflic	-6526
▁magazine	-6527
▁concerned	-6528
▁crack	-6529
▁random	-6530
SC	-6531
▁pun	-6532
▁toile	-6533
▁Industr	-6534
▁alongside	-6535
PC	-6536
po	-6537
ears	-6538
▁Right	-6539
▁Zealand	-6540
▁trouble	-6541
▁Oil	-6542
worth	-6543
▁exposure	-6544
);	-6545
▁storm	-6546
▁contribute	-6547
▁Phys	-6548
▁column	-6549
Com	-6550
ugs	-6551
▁sac	-6552
resents	-6553
▁assign	-6554
▁Night	-6555
▁Sales	-6556
▁taught	-6557
▁architecture	-6558
▁exceed	-6559
▁compens	-6560
▁climb	-6561
LS	-6562
▁ther	-6563
▁Olymp	-6564
▁panels	-6565
▁publish	-6566
what	-6567
▁Chief	-6568
▁suppliers	-6569
▁36	-6570
▁Democr	-6571
▁technique	-6572
eller	-6573
▁sole	-6574
▁Games	-6575
▁chief	-6576
▁episode	-6577
▁scholars	-6578
ading	-6579
▁Ford	-6580
▁Would	-6581
▁noted	-6582
▁proof	-6583
▁Samsung	-6584
kins	-6585
ulpt	-6586
▁hook	-6587
▁meals	-6588
▁Michigan	-6589
▁candidate	-6590
▁exceptional	-6591
TH	-6592
tain	-6593
wing	-6594
▁bear	-6595
ensity	-6596
48	-6597
77	-6598
irts	-6599
▁hero	-6600
▁Awards	-6601
▁factory	-6602
▁joining	-6603
▁advoc	-6604
▁incorpor	-6605
▁Kn	-6606
▁mur	-6607
▁vast	-6608
▁whom	-6609
▁capable	-6610
▁Financial	-6611
izza	-6612
▁drugs	-6613
▁preparation	-6614
▁DC	-6615
▁killed	-6616
▁historic	-6617
oured	-6618
terior	-6619
▁flood	-6620
▁Choose	-6621
▁mainly	-6622
▁seemed	-6623
▁anx	-6624
alled	-6625
▁Three	-6626
26	-6627
▁Rev	-6628
build	-6629
▁Drive	-6630
▁coc	-6631
▁Copy	-6632
39	-6633
▁Du	-6634
ouch	-6635
▁Jeff	-6636
tle	-6637
iversary	-6638
▁finance	-6639
▁licensed	-6640
▁extension	-6641
duate	-6642
asters	-6643
▁forces	-6644
▁enjoying	-6645
olved	-6646
▁eligible	-6647
▁tank	-6648
apping	-6649
GE	-6650
iser	-6651
▁risks	-6652
▁collected	-6653
▁reasonable	-6654
▁Aff	-6655
▁elev	-6656
▁tomorrow	-6657
▁150	-6658
▁twe	-6659
▁contest	-6660
▁functional	-6661
▁Martin	-6662
▁teen	-6663
▁phase	-6664
▁counsel	-6665
rum	-6666
▁vintage	-6667
▁WH	-6668
aturally	-6669
▁desired	-6670
▁packages	-6671
▁listening	-6672
mony	-6673
secut	-6674
▁Boston	-6675
▁coloring	-6676
▁Fre	-6677
▁whenever	-6678
▁attractive	-6679
▁regulations	-6680
▁CO	-6681
▁Es	-6682
▁Ash	-6683
▁mut	-6684
▁compat	-6685
▁liquid	-6686
▁Therefore	-6687
▁represents	-6688
nic	-6689
▁Ent	-6690
▁Give	-6691
▁tiny	-6692
uts	-6693
▁adm	-6694
▁precise	-6695
▁OR	-6696
inyl	-6697
eling	-6698
▁replaced	-6699
▁bes	-6700
▁sky	-6701
▁shock	-6702
▁reporting	-6703
▁Video	-6704
▁displ	-6705
▁solve	-6706
▁turning	-6707
▁enterprise	-6708
aren	-6709
▁Ken	-6710
▁sad	-6711
▁crucial	-6712
▁ultimate	-6713
▁Lee	-6714
class	-6715
▁Offic	-6716
uzz	-6717
!!!!	-6718
▁Mur	-6719
▁tooth	-6720
▁interactive	-6721
He	-6722
ircle	-6723
▁Girl	-6724
▁Being	-6725
▁Times	-6726
▁skilled	-6727
▁forum	-6728
▁capture	-6729
▁Beautiful	-6730
▁san	-6731
ework	-6732
▁scan	-6733
active	-6734
hors	-6735
ools	-6736
osoph	-6737
▁diss	-6738
▁Southern	-6739
▁portfolio	-6740
▁Repair	-6741
▁superv	-6742
▁generate	-6743
▁Map	-6744
▁newly	-6745
▁Columb	-6746
▁capabilities	-6747
MC	-6748
udden	-6749
▁Exam	-6750
▁Comput	-6751
▁communications	-6752
▁Federal	-6753
▁consists	-6754
bra	-6755
lace	-6756
▁Turn	-6757
▁Executive	-6758
▁travell	-6759
▁disappoint	-6760
MP	-6761
ca	-6762
EST	-6763
zil	-6764
▁Wi	-6765
▁honor	-6766
▁graphics	-6767
▁volunteers	-6768
▁Ref	-6769
apore	-6770
▁Russia	-6771
▁undert	-6772
▁originally	-6773
▁Jones	-6774
▁agreed	-6775
▁weekly	-6776
▁Software	-6777
00.	-6778
car	-6779
▁888	-6780
aired	-6781
▁cotton	-6782
▁Members	-6783
▁matches	-6784
▁dangerous	-6785
▁Four	-6786
▁compr	-6787
izer	-6788
▁spin	-6789
unior	-6790
▁mile	-6791
▁floors	-6792
▁hospit	-6793
▁stretch	-6794
DS	-6795
iking	-6796
lywood	-6797
▁holidays	-6798
▁vegetables	-6799
▁FL	-6800
cers	-6801
▁Die	-6802
▁Toy	-6803
▁Coll	-6804
▁gym	-6805
▁Perfect	-6806
▁Williams	-6807
▁lad	-6808
▁Heart	-6809
▁blogg	-6810
▁equal	-6811
▁hang	-6812
▁upgrade	-6813
▁nutrition	-6814
▁crime	-6815
▁criminal	-6816
▁Hor	-6817
▁Arab	-6818
▁imagine	-6819
▁consistent	-6820
▁thin	-6821
fo	-6822
vy	-6823
bles	-6824
▁objects	-6825
▁immediate	-6826
▁vul	-6827
ingly	-6828
▁pill	-6829
▁formed	-6830
▁ordered	-6831
ossible	-6832
▁entirely	-6833
▁instrument	-6834
aze	-6835
▁draft	-6836
▁Despite	-6837
▁stainless	-6838
▁2008	-6839
▁county	-6840
▁heating	-6841
oof	-6842
▁ran	-6843
ership	-6844
▁Photo	-6845
▁pride	-6846
▁renov	-6847
▁Install	-6848
▁seats	-6849
▁concentr	-6850
cm	-6851
▁400	-6852
▁Jersey	-6853
▁Senior	-6854
▁stated	-6855
▁normally	-6856
31	-6857
37	-6858
ati	-6859
uis	-6860
▁Hon	-6861
▁Pot	-6862
▁widely	-6863
▁displayed	-6864
▁recording	-6865
▁dust	-6866
▁vari	-6867
▁Disney	-6868
▁entered	-6869
▁confirmed	-6870
host	-6871
▁Hen	-6872
▁History	-6873
▁contrast	-6874
▁shooting	-6875
▁Unfortunately	-6876
47	-6877
▁officer	-6878
▁producing	-6879
imize	-6880
▁grew	-6881
▁Stock	-6882
▁nor	-6883
▁tiss	-6884
▁unable	-6885
▁calendar	-6886
iana	-6887
▁FOR	-6888
▁likes	-6889
▁spray	-6890
▁LLC	-6891
▁bars	-6892
▁figures	-6893
▁subscrib	-6894
▁spiritual	-6895
▁Northern	-6896
abet	-6897
▁Blo	-6898
phones	-6899
▁rating	-6900
▁tracks	-6901
▁clicking	-6902
hem	-6903
holders	-6904
▁Environment	-6905
bury	-6906
elry	-6907
▁officers	-6908
erest	-6909
▁Cool	-6910
▁Airport	-6911
▁witness	-6912
▁firms	-6913
▁flower	-6914
Re	-6915
ani	-6916
▁absor	-6917
▁hopes	-6918
▁venue	-6919
▁noticed	-6920
▁hosted	-6921
FL	-6922
▁Conc	-6923
▁Local	-6924
▁Order	-6925
▁presents	-6926
▁unexpected	-6927
hew	-6928
▁Jon	-6929
▁consequ	-6930
long	-6931
▁Flow	-6932
▁eggs	-6933
▁1/2	-6934
▁rose	-6935
▁Motor	-6936
▁stake	-6937
▁covering	-6938
gers	-6939
▁flag	-6940
etry	-6941
▁Sea	-6942
▁Sale	-6943
▁linked	-6944
21	-6945
▁hel	-6946
▁Mean	-6947
▁Ut	-6948
▁Think	-6949
▁Modern	-6950
▁categories	-6951
▁achieved	-6952
▁odd	-6953
▁stopped	-6954
▁visited	-6955
▁$5	-6956
▁PS	-6957
II	-6958
▁Ros	-6959
▁circumstances	-6960
ba	-6961
▁Bul	-6962
entle	-6963
▁king	-6964
veloper	-6965
▁dishes	-6966
▁Remember	-6967
ogue	-6968
▁tack	-6969
▁mortgage	-6970
▁committee	-6971
▁certification	-6972
▁2015.	-6973
▁https	-6974
▁purchasing	-6975
▁ol	-6976
alle	-6977
▁Ell	-6978
▁pleasure	-6979
ikes	-6980
▁formal	-6981
AB	-6982
ja	-6983
▁utility	-6984
▁permanent	-6985
▁mm	-6986
df	-6987
▁trig	-6988
▁magic	-6989
▁meets	-6990
▁increases	-6991
▁Son	-6992
▁sink	-6993
▁array	-6994
▁Silver	-6995
▁bridge	-6996
▁Jackson	-6997
▁SEO	-6998
ially	-6999
▁papers	-7000
▁complim	-7001
▁expenses	-7002
rig	-7003
▁Save	-7004
▁Pract	-7005
▁bench	-7006
▁anticip	-7007
▁election	-7008
▁reducing	-7009
’,	-7010
awn	-7011
▁index	-7012
▁managers	-7013
▁Available	-7014
▁delivering	-7015
RI	-7016
____	-7017
▁syn	-7018
▁Singapore	-7019
▁communicate	-7020
Cl	-7021
▁orange	-7022
!"	-7023
▁Cut	-7024
▁insight	-7025
enced	-7026
▁2017,	-7027
▁flour	-7028
▁sight	-7029
rich	-7030
▁$10	-7031
▁delay	-7032
▁freedom	-7033
▁memories	-7034
▁Put	-7035
▁raw	-7036
▁fest	-7037
▁fellow	-7038
49	-7039
mary	-7040
▁Cath	-7041
▁trim	-7042
▁wooden	-7043
▁personally	-7044
▁ok	-7045
▁Report	-7046
▁combine	-7047
coin	-7048
▁Clin	-7049
▁Guide	-7050
▁Americans	-7051
▁Architect	-7052
inn	-7053
ansas	-7054
▁yard	-7055
▁whilst	-7056
▁approval	-7057
▁wireless	-7058
▁guidelines	-7059
▁195	-7060
▁Never	-7061
▁scheme	-7062
▁photographs	-7063
%.	-7064
lyn	-7065
▁weap	-7066
27	-7067
▁Kids	-7068
▁Cover	-7069
▁hidden	-7070
▁breast	-7071
vas	-7072
▁tile	-7073
▁Below	-7074
▁channels	-7075
▁Pict	-7076
▁forced	-7077
▁estimated	-7078
▁conv	-7079
asting	-7080
person	-7081
▁folks	-7082
inem	-7083
▁setup	-7084
you	-7085
▁Sus	-7086
▁hoping	-7087
▁string	-7088
aded	-7089
lers	-7090
▁Rose	-7091
▁YouT	-7092
▁weak	-7093
▁param	-7094
▁trick	-7095
▁recognize	-7096
▁Rs	-7097
ls	-7098
▁letters	-7099
greg	-7100
bridge	-7101
▁trib	-7102
▁submitted	-7103
gas	-7104
celer	-7105
FC	-7106
▁stylish	-7107
▁Colorado	-7108
▁flooring	-7109
▁requests	-7110
29	-7111
▁faculty	-7112
▁victory	-7113
▁workshops	-7114
▁cock	-7115
▁Glass	-7116
▁defined	-7117
:5	-7118
▁Tax	-7119
▁drinks	-7120
▁priority	-7121
▁component	-7122
▁AD	-7123
aven	-7124
wear	-7125
▁lawyer	-7126
▁Mountain	-7127
pack	-7128
▁Base	-7129
▁Gallery	-7130
▁guaranteed	-7131
▁Pop	-7132
▁Easy	-7133
▁spark	-7134
▁ceiling	-7135
▁younger	-7136
▁recommendations	-7137
eder	-7138
▁laptop	-7139
▁sending	-7140
▁wallpaper	-7141
▁planet	-7142
▁visitor	-7143
▁domin	-7144
▁supposed	-7145
▁Hun	-7146
▁rig	-7147
▁layout	-7148
▁transp	-7149
▁ancient	-7150
▁explained	-7151
▁celebration	-7152
uls	-7153
mend	-7154
stery	-7155
▁brilliant	-7156
▁HP	-7157
iances	-7158
▁chose	-7159
▁baking	-7160
▁speech	-7161
▁genuine	-7162
▁agricult	-7163
▁Ram	-7164
▁seed	-7165
▁Bible	-7166
▁Private	-7167
ev	-7168
▁NC	-7169
roph	-7170
▁duty	-7171
▁fasc	-7172
▁unlike	-7173
▁obtained	-7174
Ex	-7175
Pro	-7176
▁suc	-7177
▁breath	-7178
TV	-7179
▁resulting	-7180
▁functionality	-7181
▁Joe	-7182
▁chairs	-7183
▁dreams	-7184
▁relatively	-7185
▁durable	-7186
ulf	-7187
▁unf	-7188
▁stamp	-7189
ographic	-7190
▁2007	-7191
▁Medicine	-7192
▁accommodation	-7193
adow	-7194
▁patio	-7195
▁vulner	-7196
▁compliance	-7197
▁telling	-7198
illy	-7199
▁Far	-7200
▁guard	-7201
▁liked	-7202
▁crisis	-7203
▁samples	-7204
▁suggestions	-7205
▁tape	-7206
▁Safety	-7207
▁Richard	-7208
▁applying	-7209
▁blocks	-7210
inch	-7211
▁Andrew	-7212
▁healing	-7213
▁authentic	-7214
▁export	-7215
▁substant	-7216
▁introduction	-7217
▁Still	-7218
ogether	-7219
▁OS	-7220
terest	-7221
uses	-7222
▁mic	-7223
▁fits	-7224
▁Quest	-7225
▁brush	-7226
▁script	-7227
▁forecast	-7228
▁millions	-7229
sey	-7230
she	-7231
▁USB	-7232
▁lift	-7233
▁zone	-7234
▁tells	-7235
▁indoor	-7236
▁concert	-7237
▁SH	-7238
▁border	-7239
▁centers	-7240
23	-7241
▁coupon	-7242
EE	-7243
▁tip	-7244
▁banks	-7245
▁habit	-7246
▁rubber	-7247
▁controls	-7248
Fi	-7249
▁Ter	-7250
▁4,	-7251
days	-7252
▁split	-7253
▁phones	-7254
oty	-7255
amber	-7256
▁versat	-7257
▁Oak	-7258
▁hur	-7259
▁Autom	-7260
bi	-7261
▁Mos	-7262
▁Pacific	-7263
▁continuing	-7264
▁vent	-7265
▁2014.	-7266
▁minimal	-7267
/0	-7268
xual	-7269
▁aside	-7270
▁judge	-7271
▁taxes	-7272
▁Agency	-7273
▁illness	-7274
▁believes	-7275
▁Additionally	-7276
▁coat	-7277
bar	-7278
agues	-7279
▁overw	-7280
▁Bob	-7281
▁recyc	-7282
▁scored	-7283
▁seriously	-7284
sec	-7285
▁promise	-7286
level	-7287
▁Bang	-7288
▁Cand	-7289
ione	-7290
▁penal	-7291
▁motion	-7292
▁succeed	-7293
▁Dog	-7294
mercial	-7295
▁marriage	-7296
▁maintaining	-7297
▁u	-7298
▁Swed	-7299
▁Roman	-7300
▁Brazil	-7301
▁rice	-7302
▁3-	-7303
aste	-7304
▁blank	-7305
▁ocean	-7306
▁relief	-7307
▁Division	-7308
▁involves	-7309
▁Rights	-7310
▁authorities	-7311
▁tomat	-7312
ounge	-7313
▁noise	-7314
▁worse	-7315
▁focuses	-7316
▁compress	-7317
omy	-7318
oster	-7319
ronics	-7320
▁merch	-7321
▁refresh	-7322
redit	-7323
uster	-7324
▁dealing	-7325
▁programming	-7326
▁Based	-7327
'.	-7328
ds	-7329
oir	-7330
▁Ha	-7331
iler	-7332
odge	-7333
▁Non	-7334
using	-7335
▁Tele	-7336
▁roles	-7337
▁passing	-7338
▁warranty	-7339
▁Collection	-7340
▁connections	-7341
una	-7342
zer	-7343
▁lucky	-7344
▁usage	-7345
▁Inte	-7346
▁Kent	-7347
▁blow	-7348
▁birds	-7349
▁Previous	-7350
▁diseases	-7351
▁Pen	-7352
▁Tick	-7353
▁east	-7354
▁Contin	-7355
▁decade	-7356
▁YouTube	-7357
▁Professor	-7358
▁Run	-7359
▁susp	-7360
▁crazy	-7361
▁frustr	-7362
▁bodies	-7363
▁Limited	-7364
▁accomplish	-7365
▁ads	-7366
under	-7367
▁shift	-7368
▁pocket	-7369
▁portion	-7370
▁Steve	-7371
▁speaker	-7372
AA	-7373
▁empt	-7374
arters	-7375
itable	-7376
ml	-7377
▁moves	-7378
respond	-7379
▁narrow	-7380
▁instant	-7381
▁texture	-7382
▁speakers	-7383
cycle	-7384
▁driven	-7385
▁Solutions	-7386
▁Obama	-7387
▁designers	-7388
BI	-7389
▁DI	-7390
▁none	-7391
▁Brand	-7392
▁screw	-7393
▁muscle	-7394
▁graphic	-7395
▁losing	-7396
▁painted	-7397
pat	-7398
then	-7399
itches	-7400
lessly	-7401
▁volunteer	-7402
▁Ur	-7403
agon	-7404
acular	-7405
▁Estate	-7406
▁behalf	-7407
▁sudden	-7408
▁posting	-7409
forcement	-7410
▁Simply	-7411
▁possibility	-7412
▁regions	-7413
▁structures	-7414
▁electricity	-7415
▁por	-7416
▁ensures	-7417
▁displays	-7418
▁discussed	-7419
VER	-7420
▁Band	-7421
losure	-7422
▁marks	-7423
▁errors	-7424
▁lets	-7425
▁Georgia	-7426
▁chances	-7427
▁surprised	-7428
ingu	-7429
uracy	-7430
▁funny	-7431
▁alumni	-7432
▁belief	-7433
▁Hold	-7434
▁clar	-7435
▁incredibly	-7436
▁ski	-7437
▁pepper	-7438
▁apparent	-7439
▁ceremony	-7440
▁incident	-7441
urse	-7442
▁Ray	-7443
ieving	-7444
▁Personal	-7445
▁Kim	-7446
▁Conf	-7447
▁hack	-7448
▁lake	-7449
▁filling	-7450
As	-7451
▁downtown	-7452
▁Ren	-7453
▁trips	-7454
ubs	-7455
▁$3	-7456
▁Jenn	-7457
▁Space	-7458
▁division	-7459
46	-7460
iary	-7461
▁module	-7462
▁constant	-7463
igate	-7464
▁ram	-7465
▁stim	-7466
▁Stone	-7467
▁shell	-7468
▁wiring	-7469
▁cookies	-7470
uling	-7471
uclear	-7472
▁shots	-7473
▁advent	-7474
▁refr	-7475
▁convert	-7476
▁council	-7477
ifies	-7478
inois	-7479
▁legs	-7480
▁Cabin	-7481
EA	-7482
▁DJ	-7483
▁Ly	-7484
born	-7485
▁Cult	-7486
▁Creek	-7487
▁recre	-7488
▁theory	-7489
▁Francisco	-7490
▁personality	-7491
▁casual	-7492
▁flexibility	-7493
bing	-7494
ventional	-7495
▁packaging	-7496
bel	-7497
▁Nick	-7498
▁tournament	-7499
uan	-7500
pret	-7501
tics	-7502
▁Blu	-7503
▁Jac	-7504
▁violence	-7505
▁mechanism	-7506
▁preferred	-7507
▁Asian	-7508
▁attach	-7509
▁Natural	-7510
▁consumption	-7511
aping	-7512
▁wrap	-7513
▁inner	-7514
ico	-7515
▁Foot	-7516
▁Cloud	-7517
▁doctors	-7518
▁traveling	-7519
▁Lib	-7520
▁Country	-7521
▁convenience	-7522
?"	-7523
otive	-7524
▁resort	-7525
▁Express	-7526
▁streets	-7527
▁preparing	-7528
LY	-7529
iform	-7530
▁concerning	-7531
▁sculpt	-7532
▁commonly	-7533
▁id	-7534
▁Fac	-7535
▁Excell	-7536
▁primarily	-7537
▁certificate	-7538
axy	-7539
▁aims	-7540
▁Station	-7541
▁smartphone	-7542
▁contractors	-7543
▁inventory	-7544
▁seam	-7545
EG	-7546
▁Pow	-7547
▁Contract	-7548
▁refriger	-7549
▁Sher	-7550
▁Studio	-7551
▁checking	-7552
shire	-7553
stream	-7554
▁lists	-7555
▁enroll	-7556
▁initiative	-7557
!)	-7558
agen	-7559
ints	-7560
▁spacious	-7561
**	-7562
▁Prom	-7563
▁juice	-7564
▁concepts	-7565
▁male	-7566
▁refund	-7567
▁tracking	-7568
▁yours	-7569
RS	-7570
mo	-7571
▁Mat	-7572
▁Fact	-7573
▁lowest	-7574
▁Wr	-7575
▁DVD	-7576
luded	-7577
▁arms	-7578
▁loving	-7579
▁describe	-7580
▁saved	-7581
ulum	-7582
▁Was	-7583
▁Fall	-7584
▁rely	-7585
▁league	-7586
▁reader	-7587
▁sophist	-7588
▁naturally	-7589
▁sensitive	-7590
▁integration	-7591
▁requirement	-7592
▁dual	-7593
▁Queen	-7594
▁depress	-7595
▁(3	-7596
▁pref	-7597
▁Johnson	-7598
▁follows	-7599
▁entrance	-7600
▁reserved	-7601
▁controlled	-7602
rian	-7603
▁Ask	-7604
state	-7605
▁prove	-7606
▁Resp	-7607
▁boot	-7608
▁blind	-7609
▁facts	-7610
ertaining	-7611
▁stations	-7612
▁Rub	-7613
rooms	-7614
▁Square	-7615
▁visible	-7616
▁talks	-7617
▁sheets	-7618
▁directory	-7619
aters	-7620
▁2013.	-7621
▁prize	-7622
▁screens	-7623
▁lifetime	-7624
▁retirement	-7625
▁specialists	-7626
AY	-7627
cor	-7628
ells	-7629
real	-7630
utter	-7631
▁Spain	-7632
▁depends	-7633
▁staying	-7634
▁trusted	-7635
▁passionate	-7636
onto	-7637
▁Mah	-7638
▁drain	-7639
▁rural	-7640
▁nights	-7641
▁Illinois	-7642
TER	-7643
▁CC	-7644
▁inn	-7645
▁directed	-7646
▁Following	-7647
ifer	-7648
▁gall	-7649
▁2016,	-7650
▁Irish	-7651
▁scores	-7652
▁Everyone	-7653
▁Manufact	-7654
▁generated	-7655
▁hole	-7656
▁causing	-7657
▁Ess	-7658
▁Leg	-7659
ampion	-7660
▁packed	-7661
▁Due	-7662
▁yoga	-7663
limited	-7664
▁Employ	-7665
▁organisation	-7666
▁invite	-7667
▁Interest	-7668
ucky	-7669
▁pra	-7670
unicip	-7671
▁ft	-7672
▁pitch	-7673
▁CP	-7674
▁ord	-7675
riers	-7676
▁Studies	-7677
▁encouraged	-7678
ila	-7679
▁Lat	-7680
▁automatic	-7681
▁	-7682
e	-7683
t	-7684
a	-7685
o	-7686
i	-7687
n	-7688
r	-7689
s	-7690
l	-7691
h	-7692
d	-7693
c	-7694
u	-7695
m	-7696
p	-7697
f	-7698
g	-7699
y	-7700
w	-7701
b	-7702
.	-7703
v	-7704
,	-7705
k	-7706
T	-7707
I	-7708
S	-7709
A	-7710
C	-7711
0	-7712
-	-7713
M	-7714
x	-7715
1	-7716
P	-7717
B	-7718
W	-7719
D	-7720
2	-7721
E	-7722
R	-7723
H	-7724
F	-7725
L	-7726
’	-7727
O	-7728
N	-7729
G	-7730
j	-7731
'	-7732
q	-7733
z	-7734
5	-7735
)	-7736
3	-7737
(	-7738
!	-7739
U	-7740
4	-7741
9	-7742
:	-7743
"	-7744
J	-7745
8	-7746
Y	-7747
?	-7748
6	-7749
V	-7750
K	-7751
7	-7752
/	-7753
“	-7754
”	-7755
–	-7756
;	-7757
&	-7758
$	-7759
Q	-7760
X	-7761
%	-7762
Z	-7763
—	-7764
‘	-7765
*	-7766
_	-7767
+	-7768
#	-7769
@	-7770
>	-7771
[	-7772
é	-7773
]	-7774
|	-7775
®	-7776
£	-7777
=	-7778
•	-7779
­	-7780
е	-7781
о	-7782
а	-7783
′	-7784
°	-7785
·	-7786
€	-7787
\	-7788
©	-7789
<	-7790
á	-7791
и	-7792
~	-7793
ü	-7794
»	-7795
н	-7796
í	-7797
т	-7798
â	-7799
р	-7800
ö	-7801
ä	-7802
ó	-7803
с	-7804
`	-7805
в	-7806
è	-7807
л	-7808
ا	-7809
⁄	-7810
к	-7811
^	-7812
×	-7813
у	-7814
«	-7815
ñ	-7816
м	-7817
́	-7818
ç	-7819
à	-7820
д	-7821
і	-7822
Â	-7823
п	-7824
ā	-7825
	-7826
ы	-7827
ی	-7828
α	-7829
ر	-7830
م	-7831
ѕ	-7832
å	-7833
ن	-7834
я	-7835
г	-7836
›	-7837
🙂	-7838
ل	-7839
μ	-7840
←	-7841
ь	-7842
б	-7843
ú	-7844
ο	-7845
й	-7846
з	-7847
و	-7848
د	-7849
¢	-7850
ø	-7851
„	-7852
ã	-7853
‐	-7854
É	-7855
ı	-7856
ा	-7857
Ã	-7858
§	-7859
ب	-7860
↑	-7861
ч	-7862
ه	-7863
ê	-7864
्	-7865
±	-7866
ت	-7867
이	-7868
ô	-7869
ë	-7870
ν	-7871
š	-7872
س	-7873
र	-7874
С	-7875
●	-7876
다	-7877
ي	-7878
ł	-7879
的	-7880
	-7881
า	-7882
、	-7883
→	-7884
น	-7885
‚	-7886
ン	-7887
ι	-7888
τ	-7889
ー	-7890
х	-7891
ε	-7892
ж	-7893
	-7894
の	-7895
А	-7896
ì	-7897
	-7898
া	-7899
Ö	-7900
ï	-7901
의	-7902
하	-7903
는	-7904
ş	-7905
ک	-7906
	-7907
О	-7908
æ	-7909
ш	-7910
ō	-7911
	-7912
č	-7913
니	-7914
에	-7915
ί	-7916
−	-7917
한	-7918
	-7919
ц	-7920
न	-7921
。	-7922
œ	-7923
ć	-7924
ß	-7925
ρ	-7926
	-7927
ร	-7928
Å	-7929
β	-7930
λ	-7931
ش	-7932
त	-7933
Á	-7934
κ	-7935
ف	-7936
क	-7937
î	-7938
로	-7939
¬	-7940
ع	-7941
Р	-7942
Т	-7943
В	-7944
И	-7945
️	-7946
े	-7947
র	-7948
₹	-7949
	-7950
ī	-7951
ि	-7952
ò	-7953
स	-7954
อ	-7955
―	-7956
Ü	-7957
ф	-7958
เ	-7959
시	-7960
म	-7961
ে	-7962
ม	-7963
가	-7964
지	-7965
ю	-7966
π	-7967
י	-7968
ق	-7969
य	-7970
¥	-7971
υ	-7972
★	-7973
리	-7974
¿	-7975
ū	-7976
ž	-7977
η	-7978
ς	-7979
ו	-7980
ी	-7981
어	-7982
σ	-7983
日	-7984
э	-7985
고	-7986
기	-7987
¡	-7988
ù	-7989
К	-7990
ल	-7991
스	-7992
을	-7993
・	-7994
П	-7995
ス	-7996
서	-7997
ğ	-7998
پ	-7999
ト	-8000
업	-8001
δ	-8002
ز	-8003
प	-8004
ี	-8005
❤	-8006
ý	-8007
Н	-8008
인	-8009
ก	-8010
ज	-8011
่	-8012
一	-8013
İ	-8014
ह	-8015
도	-8016
Ó	-8017
้	-8018
중	-8019
Š	-8020
ি	-8021
ล	-8022
사	-8023
수	-8024
Г	-8025
に	-8026
국	-8027
😉	-8028
ē	-8029
ω	-8030
Ђ	-8031
ッ	-8032
М	-8033
آ	-8034
✔	-8035
で	-8036
나	-8037
트	-8038
্	-8039
ð	-8040
ה	-8041
ة	-8042
ح	-8043
ক	-8044
†	-8045
い	-8046
は	-8047
Ø	-8048
ं	-8049
ब	-8050
ो	-8051
ท	-8052
ă	-8053
ל	-8054
خ	-8055
⠀	-8056
中	-8057
û	-8058
Д	-8059
ك	-8060
「	-8061
イ	-8062
있	-8063
έ	-8064
Е	-8065
ج	-8066
ग	-8067
ย	-8068
✓	-8069
정	-8070
Ä	-8071
õ	-8072
ƒ	-8073
व	-8074
」	-8075
月	-8076
공	-8077
신	-8078
}	-8079
̊	-8080
்	-8081
り	-8082
ア	-8083
ę	-8084
מ	-8085
ง	-8086
ル	-8087
	-8088
ত	-8089
し	-8090
タ	-8091
人	-8092
ค	-8093
♥	-8094
を	-8095
ą	-8096
щ	-8097
■	-8098
す	-8099
有	-8100
Ç	-8101
א	-8102
전	-8103
ό	-8104
য	-8105
≥	-8106
用	-8107
은	-8108
제	-8109
체	-8110
ś	-8111
ת	-8112
ა	-8113
リ	-8114
是	-8115
으	-8116
장	-8117
Α	-8118
≤	-8119
れ	-8120
당	-8121
주	-8122
γ	-8123
ב	-8124
入	-8125
社	-8126
를	-8127
습	-8128
ě	-8129
ط	-8130
ন	-8131
ั	-8132
ロ	-8133
国	-8134
대	-8135
되	-8136
연	-8137
ר	-8138
บ	-8139
ი	-8140
て	-8141
と	-8142
プ	-8143
드	-8144
라	-8145
해	-8146
ř	-8147
☆	-8148
た	-8149
ま	-8150
る	-8151
ク	-8152
적	-8153
ά	-8154
ص	-8155
च	-8156
ु	-8157
ા	-8158
ว	-8159
ะ	-8160
▪	-8161
격	-8162
마	-8163
저	-8164
ˈ	-8165
̃	-8166
พ	-8167
ิ	-8168
学	-8169
화	-8170
ń	-8171
ə	-8172
Б	-8173
َ	-8174
ব	-8175
ส	-8176
不	-8177
̈	-8178
렴	-8179
미	-8180
ল	-8181
大	-8182
ė	-8183
گ	-8184
ম	-8185
出	-8186
在	-8187
